{"version":"1.0","truncation":{"direction":"Right","max_length":1024,"strategy":"LongestFirst","stride":0},"padding":{"strategy":{"Fixed":0},"direction":"Right","pad_to_multiple_of":null,"pad_id":50253,"pad_type_id":0,"pad_token":"[PAD]"},"added_tokens":[{"id":50252,"content":"[UNK]","single_word":true,"lstrip":true,"rstrip":true,"normalized":true,"special":true},{"id":50253,"content":"[PAD]","single_word":true,"lstrip":true,"rstrip":true,"normalized":true,"special":true}],"normalizer":{"type":"NFC"},"pre_tokenizer":{"type":"ByteLevel","add_prefix_space":true,"trim_offsets":true,"use_regex":true},"post_processor":null,"decoder":{"type":"ByteLevel","add_prefix_space":false,"trim_offsets":true,"use_regex":true},"model":{"type":"BPE","dropout":null,"unk_token":"[UNK]","continuing_subword_prefix":null,"end_of_word_suffix":null,"fuse_unk":false,"byte_fallback":false,"ignore_merges":false,"vocab":{"!":0,"\"":1,"#":2,"$":3,"%":4,"&":5,"'":6,"(":7,")":8,"*":9,"+":10,",":11,"-":12,".":13,"/":14,"0":15,"1":16,"2":17,"3":18,"4":19,"5":20,"6":21,"7":22,"8":23,"9":24,":":25,";":26,"<":27,"=":28,">":29,"?":30,"@":31,"A":32,"B":33,"C":34,"D":35,"E":36,"F":37,"G":38,"H":39,"I":40,"J":41,"K":42,"L":43,"M":44,"N":45,"O":46,"P":47,"Q":48,"R":49,"S":50,"T":51,"U":52,"V":53,"W":54,"X":55,"Y":56,"Z":57,"[":58,"\\":59,"]":60,"^":61,"_":62,"`":63,"a":64,"b":65,"c":66,"d":67,"e":68,"f":69,"g":70,"h":71,"i":72,"j":73,"k":74,"l":75,"m":76,"n":77,"o":78,"p":79,"q":80,"r":81,"s":82,"t":83,"u":84,"v":85,"w":86,"x":87,"y":88,"z":89,"{":90,"|":91,"}":92,"~":93,"¡":94,"¢":95,"£":96,"¤":97,"¥":98,"¦":99,"§":100,"¨":101,"©":102,"ª":103,"«":104,"¬":105,"®":106,"¯":107,"°":108,"±":109,"²":110,"³":111,"´":112,"µ":113,"¶":114,"·":115,"¸":116,"¹":117,"º":118,"»":119,"¼":120,"½":121,"¾":122,"¿":123,"Â":124,"Ã":125,"Ä":126,"Å":127,"Æ":128,"Ç":129,"È":130,"É":131,"Ê":132,"Ë":133,"Ì":134,"Í":135,"Î":136,"Ï":137,"Ð":138,"Ñ":139,"Ò":140,"Ó":141,"Ô":142,"Õ":143,"Ö":144,"×":145,"Ø":146,"Ù":147,"Ú":148,"Û":149,"Ü":150,"Ý":151,"Þ":152,"ß":153,"à":154,"á":155,"â":156,"ã":157,"ä":158,"å":159,"æ":160,"ç":161,"è":162,"é":163,"ê":164,"ë":165,"ì":166,"í":167,"î":168,"ï":169,"ð":170,"ñ":171,"ò":172,"ó":173,"ô":174,"Ā":175,"ā":176,"Ă":177,"ă":178,"Ą":179,"ą":180,"Ć":181,"ć":182,"Ĉ":183,"ĉ":184,"Ċ":185,"ċ":186,"Č":187,"č":188,"Ď":189,"ď":190,"Đ":191,"đ":192,"Ē":193,"ē":194,"Ĕ":195,"ĕ":196,"Ė":197,"ė":198,"Ę":199,"ę":200,"Ě":201,"ě":202,"Ĝ":203,"ĝ":204,"Ğ":205,"ğ":206,"Ġ":207,"ġ":208,"Ģ":209,"ģ":210,"Ĥ":211,"ĥ":212,"Ħ":213,"ħ":214,"Ĩ":215,"ĩ":216,"Ī":217,"ī":218,"Ĭ":219,"ĭ":220,"Į":221,"į":222,"İ":223,"ı":224,"Ĳ":225,"ĳ":226,"Ĵ":227,"ĵ":228,"Ķ":229,"ķ":230,"ĸ":231,"Ĺ":232,"ĺ":233,"Ļ":234,"ļ":235,"Ľ":236,"ľ":237,"Ŀ":238,"ŀ":239,"Ł":240,"ł":241,"Ń":242,"ĠĠ":243,"Ġt":244,"Ġa":245,"he":246,"in":247,"re":248,"on":249,"ĠĠĠĠ":250,"Ġthe":251,"er":252,"at":253,"Ġs":254,"en":255,"Ġo":256,"Ġw":257,"Ġc":258,"is":259,"it":260,"or":261,"ed":262,"es":263,"an":264,"al":265,"Ġp":266,"Ġf":267,"Ġb":268,"Ġan":269,"ing":270,"Ġof":271,"ar":272,"Ġin":273,"ou":274,"Ġd":275,"Ġm":276,"ion":277,"ic":278,"Ġto":279,"le":280,"--":281,"as":282,"Ġand":283,"ĠĠĠĠĠĠĠĠ":284,"ro":285,"Ġh":286,"Ġth":287,"ent":288,"ct":289,"et":290,"el":291,"Ġre":292,"Ġn":293,"st":294,"om":295,"Ġl":296,"Ġe":297,"il":298,"id":299,"ot":300,"im":301,"ig":302,"Ġg":303,"ve":304,"ut":305,"ĠT":306,"ĠI":307,"Ġis":308,"ol":309,"am":310,"Ġ(":311,"ly":312,"----":313,"us":314,"ac":315,"ation":316,"ow":317,"Ġbe":318,"ur":319,"ĠS":320,"Ġfor":321,"ad":322,"âĢ":323,"Ġthat":324,"Ġon":325,"un":326,"ĠA":327,"ĠC":328,"Ġst":329,"ver":330,"ay":331,"ith":332,"ul":333,"ce":334,"Ġ1":335,"if":336,"se":337,"Ġy":338,"ĠĠĠ":339,"Ġwith":340,"ir":341,"Ġhe":342,"Ġcon":343,"Ġ\"":344,"Ġas":345,"ch":346,"ĠĠĠĠĠĠĠĠĠĠĠĠĠĠĠĠ":347,"ter":348,"od":349,"Ġit":350,"ĠM":351,"Ġpro":352,"Ġal":353,"ag":354,"ab":355,"em":356,"Ġwe":357,"um":358,"00":359,"Ġv":360,"ri":361,"Ġwh":362,"pe":363,"ate":364,"ĠP":365,"Ġyou":366,"Ġwas":367,"Ġ$":368,"qu":369,"Ġde":370,"res":371,"Ġ2":372,"os":373,"ra":374,"pp":375,"ĠB":376,"her":377,"ĠThe":378,"==":379,"ist":380,"est":381,"ht":382,"Ġex":383,"ant":384,"Ġat":385,"ĠH":386,"Ġcom":387,"Ġor":388,"Ġr":389,"ld":390,"Ġ\\":391,"th":392,"and":393,"Ġse":394,"--------":395,"ers":396,"ĠD":397,"iv":398,"ĠF":399,"Ġsu":400,"Ġare":401,"ain":402,"ess":403,"oc":404,"Ġby":405,"ill":406,"rom":407,"ore":408,"ĠW":409,"op":410,"ke":411,"ity":412,"oun":413,"ĠR":414,"Ġnot":415,"ĠL":416,"Ġha":417,"ment":418,"ction":419,"ive":420,"end":421,"**":422,"Ġne":423,"Ġ=":424,"ĠN":425,"Ġ-":426,"ight":427,"ort":428,"pt":429,"Ġfrom":430,"red":431,"'s":432,"art":433,"Ġthis":434,"ell":435,"ud":436,"Ġsh":437,"Ġun":438,"Ġus":439,"te":440,"ĠG":441,"ĠE":442,"ren":443,"pl":444,"ies":445,"Ġch":446,".\"":447,"ould":448,"ial":449,"Ġhave":450,"fe":451,"our":452,"all":453,"ated":454,"âĢĻ":455,"Ġle":456,"ure":457,"ine":458,"ust":459,"og":460,"ge":461,"{\\":462,"Ġk":463,"ie":464,"ĠĠĠĠĠĠĠ":465,"per":466,"ich":467,"Ġ0":468,"ack":469,"ard":470,"ĠO":471,"ical":472,"Ġ*":473,"Ġcan":474,"ĊĠĠĠ":475,"iz":476,"Ġme":477,"Ġj":478,").":479,"ame":480,"out":481,"up":482,"ome":483,"age":484,"ib":485,"Ġwhe":486,"ue":487,"Ġab":488,"der":489,"Ġtr":490,"ost":491,"able":492,"Ġ3":493,"ĠIn":494,"Ġwere":495,"cl":496,"Ġpl":497,"ĠJ":498,"Ġres":499,"Ġcl":500,"ult":501,"ide":502,"ast":503,"ath":504,"ans":505,"ther":506,"Ġcomp":507,"The":508,"ase":509,"Ġall":510,"Ġdo":511,"act":512,"ass":513,"Ġim":514,"ound":515,"ak":516,"Ġad":517,"01":518,"Ġhis":519,"ap":520,"Ġcont":521,"====":522,"ign":523,"orm":524,"ind":525,"ous":526,"oug":527,"ĠU":528,"one":529,"ip":530,"Ġbut":531,"Ġwhich":532,"ĊĊ":533,"ok":534,"..":535,"ub":536,"ition":537,"Ġint":538,"ĠâĢ":539,"ĠĠĠĠĠĠĠĠĠĠĠĠĠĠĠĠĠĠĠĠĠĠĠĠĠĠĠĠĠĠĠĠ":540,"ong":541,"Ġ[":542,"ph":543,"Ġen":544,"ice":545,"Ġwor":546,"Ġar":547,"cc":548,"Ġ{":549,"ary":550,"ime":551,"ep":552,"ty":553,"Ġhas":554,"Ġdis":555,");":556,"Ġ+":557,"ress":558,"ens":559,"Ġout":560,"du":561,"Ġgo":562,"int":563,"ence":564,"ff":565,"=\"":566,"ations":567,"ne":568,"ia":569,"Ġqu":570,"----------------":571,"Ġhad":572,"Âł":573,"ĊĠĠĠĠĠĠĠĠ":574,"Ġ4":575,"_{":576,"ru":577,"av":578,"Ġone":579,"),":580,"ose":581,"ace":582,"con":583,"ĊĠ":584,"ile":585,"Ġwill":586,"ber":587,"ory":588,"Ġper":589,"ents":590,"ance":591,"Ġso":592,"ally":593,"ĠTh":594,"Ġthey":595,"Ġup":596,"}}":597,"ely":598,"so":599,"ough":600,"ire":601,"Ġif":602,"//":603,"ang":604,"ach":605,"Ġ5":606,"are":607,"ry":608,"ĠK":609,"Ġev":610,"ear":611,"ite":612,"de":613,"Ġtheir":614,"Ġher":615,"Ġsa":616,"Ġmy":617,"ll":618,"ions":619,"Ġapp":620,"ĉĉ":621,"rent":622,"Ġmore":623,"'t":624,"Ġthere":625,"own":626,"Ġpart":627,"form":628,"port":629,"Ġli":630,"xt":631,"Ġyour":632,"very":633,"ord":634,"Ġman":635,"Ġpre":636,"Ġag":637,"ake":638,"ors":639,"Ġno":640,"Ġother":641,"Ġbeen":642,"ook":643,"ect":644,"ail":645,"ĊĠĠĠĠĠĠĠ":646,"ft":647,"Ġgr":648,"Ġwould":649,"vel":650,"Ġsp":651,"Ġ<":652,"Ġ19":653,"ys":654,"ĠV":655,"ree":656,"ĠSt":657,"Ġsc":658,"ks":659,"urn":660,"lic":661,"we":662,"Ġwho":663,"aus":664,"Ġany":665,"âĢĿ":666,"Ġ$\\":667,"Ġabout":668,"Ġalso":669,"Ġwhen":670,"Ġtime":671,"ĠĠĠĠĠ":672,"reat":673,"low":674,"erv":675,"eth":676,"math":677,"wo":678,"com":679,"ata":680,"[@":681,"ates":682,"Ġthan":683,"Ġ'":684,"Ġro":685,"In":686,"Ġover":687,"Ġsome":688,"Ġob":689,"ific":690,"erm":691,"Ġkn":692,"ric":693,"\\]":694,"Ġits":695,"ays":696,"fter":697,"hat":698,"Ġbet":699,"ount":700,"Ġshe":701,"Ġfe":702,"Ġspe":703,"ob":704,"ces":705,"Ġ&":706,"ref":707,"ove":708,"Ġdes":709,"irst":710,"ple":711,"ĠY":712,"Ġinto":713,"Ġte":714,"Ġam":715,"Ġass":716,"cre":717,"ject":718,"Ġ6":719,"Ġdif":720,"ings":721,"}$":722,"rib":723,"Ġsy":724,"ater":725,"ied":726,"ov":727,"Ġgen":728,"Ġthem":729,"lect":730,"ĠIt":731,"Ġinter":732,"vers":733,"row":734,"gr":735,"fect":736,"iss":737,"10":738,"clud":739,"hed":740,"ĠAn":741,"old":742,"Ġoff":743,"19":744,"Ġnew":745,"Ġ}":746,"Ġsub":747,"ink":748,"Ġlike":749,"Ġwhat":750,"Ġsaid":751,"ĠHe":752,"Ġget":753,"Ġacc":754,"ian":755,"ced":756,"Ġpe":757,"Ġonly":758,"Ġrec":759,"Ġunder":760,"ish":761,"Ġcomm":762,"ãģ":763,"ause":764,"Ġtwo":765,"^{":766,"Ġact":767,"itt":768,"Ġmod":769,"Ġcons":770,"ĠâĢľ":771,"Ġrel":772,"ĠCh":773,"Ġour":774,"ck":775,"Ġmay":776,"Ġhim":777,"ual":778,"ick":779,"ark":780,"the":781,"ious":782,"ma":783,"ild":784,"Ġbl":785,"get":786,"Ġwork":787,"ons":788,"Ġbec":789,"ular":790,"ps":791,"Ġfun":792,"Ġ_":793,"ade":794,"ert":795,"igh":796,"Ġstud":797,"ative":798,"Ġind":799,"Ġem":800,"Ġpos":801,"ring":802,"12":803,"Ġfirst":804,"Ġyear":805,"pect":806,"Ġdef":807,"Ġreg":808,"Ġtrans":809,"Ġcould":810,"elf":811,"ug":812,"Ġph":813,"Ġjust":814,"##":815,"Ġ7":816,"Ġpr":817,"Ġco":818,"Ġval":819,"========":820,"Ġadd":821,"Ġsuch":822,"ock":823,"Ġla":824,"iew":825,"Ġinv":826,"cess":827,"Ġform":828,"ĠThis":829,"ef":830,"ased":831,"ont":832,"Ġwhere":833,"ood":834,"oth":835,"Ġpres":836,"ating":837,"Ġthen":838,"Ġthese":839,"oint":840,"Ġdet":841,"ĠWe":842,"Ġdiffe":843,"Ġafter":844,"Ġcol":845,"Ġ201":846,"Ġhow":847,"ient":848,"Ġret":849,"stem":850,"ode":851,"Ġ8":852,"ween":853,"pro":854,"ond":855,"Ġdid":856,"ss":857,"Ã©":858,"Ġsign":859,"olog":860,"Ġatt":861,"hen":862,"?\"":863,"Ġexp":864,"Ġrem":865,"les":866,"Ġpat":867,"</":868,"Ġknow":869,"Ġprov":870,"Ġset":871,"ility":872,"Ġbetween":873,"__":874,"Ġpol":875,"Ġneed":876,"ople":877,"](":878,"type":879,"ict":880,"11":881,"Ġ10":882,"ise":883,"ec":884,"ffect":885,"ident":886,"}\\":887,"ution":888,"Ġi":889,"Ġfl":890,"ta":891,"Ġcell":892,"ix":893,"Ġback":894,"Ġuse":895,"Ġ9":896,"oy":897,"io":898,"ollow":899,"rit":900,"rough":901,".,":902,"Ġ\\[":903,"Ġresult":904,"ize":905,"Ġused":906,"eg":907,"){":908,"ex":909,"ange":910,"Ġac":911,"ĠUn":912,"Ġsupp":913,"cept":914,"ible":915,"right":916,"Ġsur":917,"ning":918,"Ġshow":919,"fore":920,"Ġsee":921,"Ġsm":922,"fr":923,"fig":924,"Ġinclud":925,"iel":926,"ĠÐ":927,"Ġnum":928,"tern":929,"als":930,"000":931,"ble":932,"ĊĠĠĠĠĠĠĠĠĠĠĠ":933,"to":934,",\"":935,"20":936,"wn":937,"Ġdist":938,"Ġdata":939,"ments":940,"Ġshould":941,"Ġcor":942,"Ġvar":943,"Ġspec":944,"ER":945,"Ġsim":946,"Ġthrough":947,"ourt":948,"cy":949,"Ġpeople":950,"its":951,"Ġmost":952,"ues":953,"Ġfollow":954,"ruct":955,"Ġfact":956,"ited":957,"ctions":958,"mer":959,"ull":960,"Ġty":961,"Ġ.":962,"li":963,"Ġclass":964,"ined":965,"ins":966,"Ġagain":967,"Ġusing":968,"Ġwant":969,"ever":970,"Ġwell":971,"ract":972,"ublic":973,"uch":974,"other":975,"Ġinst":976,"ĠĠĠĠĠĠ":977,"ures":978,"uring":979,"ics":980,"ms":981,"Ġbecause":982,"Ġsystem":983,"\"}":984,"Ġright":985,"Ċĉĉ":986,"inal":987,"Ġend":988,"ax":989,"ateg":990,"pos":991,"Ġent":992,"\",":993,"Ċĉ":994,"Ġrequ":995,"St":996,"ew":997,"err":998,"ield":999,"Ġprodu":1000,"ement":1001,"ox":1002,"ities":1003,"Ġgener":1004,"Ġlook":1005,"Ġ[@":1006,")$":1007,"15":1008,"oup":1009,"13":1010,"--------------------------------":1011,"Ġeven":1012,"ĊĠĠĠĠĠĠĠĠĠĠĠĠĠĠĠ":1013,"Ġeach":1014,"ower":1015,"Ġchar":1016,"]{":1017,"ful":1018,"Ġext":1019,"imes":1020,"ĠSe":1021,"Ġnow":1022,"ized":1023,"sc":1024,"Ġdifferent":1025,"uc":1026,"Ġhigh":1027,"Ġconst":1028,"ily":1029,"ars":1030,"sp":1031,"ward":1032,"(\\":1033,"16":1034,"ically":1035,"cond":1036,"Ġway":1037,"Ġ|":1038,"hes":1039,"IN":1040,"ĊĠĠĠĠĠ":1041,"Th":1042,"Ġel":1043,"Ġevery":1044,"14":1045,"Ġlong":1046,"Ġap":1047,"ational":1048,"...":1049,"Ġ200":1050,"Ġdon":1051,"Ġmin":1052,"Ġeffect":1053,"Ġmake":1054,"Ġdoes":1055,"Ġke":1056,"let":1057,"Ġhere":1058,"Ġpar":1059,"ool":1060,"ger":1061,"ork":1062,"put":1063,"Ġdown":1064,"Ġcall":1065,"Ð¾":1066,"riv":1067,"led":1068,"Ġtest":1069,"Ġsame":1070,"Ġdi":1071,"ife":1072,"ention":1073,"ting":1074,"Ġvery":1075,"Ġbefore":1076,"ale":1077,"ator":1078,"Ġbu":1079,"()":1080,"Ġcase":1081,"](#":1082,"ĠĠĠĠĠĠĠĠĠĠĠĠĠĠĠĠĠĠĠĠĠĠĠĠĠĠĠĠĠĠĠĠĠĠĠĠĠĠĠĠĠĠĠĠĠĠĠĠĠĠĠĠĠĠĠĠĠĠĠĠĠĠĠĠ":1083,"Ġdec":1084,"pr":1085,"read":1086,"Ġfind":1087,"ince":1088,"Ġreturn":1089,"],":1090,"18":1091,"air":1092,"Ġcur":1093,"ared":1094,"Ġboth":1095,"Ġstat":1096,"25":1097,"ines":1098,"Ġinte":1099,"rol":1100,"ants":1101,"ients":1102,"ym":1103,"way":1104,"Ġyears":1105,"ĠâĢĵ":1106,"rm":1107,"Ġthose":1108,"Ġmat":1109,"Ġbel":1110,"Ġcar":1111,"Ġmon":1112,"Ġanal":1113,"arch":1114,"Ġpartic":1115,"oci":1116,"Ġfound":1117,"rest":1118,"Ġop":1119,"ript":1120,"ave":1121,"frac":1122,"Ġaut":1123,"_{\\":1124,"Ġpoint":1125,"âĢĶ":1126,"Ġmed":1127,"ethod":1128,"ages":1129,"Ġplay":1130,"Ġhand":1131,"****":1132,"upp":1133,"ann":1134,"ute":1135,"\">":1136,"ON":1137,"Ġtra":1138,"Ġincre":1139,"Ġmany":1140,"aint":1141,"Ġest":1142,"An":1143,"Ġbeing":1144,"It":1145,"par":1146,"Ġgu":1147,"Ġloc":1148,"Ġser":1149,"Ð°":1150,"Ġpers":1151,"cent":1152,"velop":1153,"text":1154,"Ġ,":1155,"Ġthink":1156,"Ġfunction":1157,"Ġmade":1158,"Ġche":1159,"Ġet":1160,"Ġ:":1161,"ank":1162,"ĠQ":1163,"17":1164,"Ġmem":1165,"->":1166,"ases":1167,"aking":1168,"of":1169,"Ġexper":1170,"ev":1171,"Ġexam":1172,"Ġgood":1173,"ĠCom":1174,"ature":1175,"set":1176,"cal":1177,"Ġnumber":1178,"]{}":1179,"Ġz":1180,"Ġresp":1181,"]\\]":1182,"Ġdire":1183,"âĢī":1184,"ason":1185,"ĊĠĠĠĠĠĠĠĠĠĠĠĠĠĠĠĠ":1186,"over":1187,"yl":1188,"ĠÂ":1189,"Ġappro":1190,"Ġfil":1191,"AT":1192,"Ġtri":1193,"rence":1194,"ody":1195,"ĠFor":1196,"Ġmuch":1197,"sh":1198,"day":1199,"$\\":1200,"Ġhel":1201,"ism":1202,"eng":1203,"tr":1204,"Ðµ":1205,"val":1206,"cer":1207,"Ġins":1208,"Ġown":1209,"app":1210,"Ġstr":1211,"Ġ@":1212,"ense":1213,"ner":1214,"}{":1215,"Ġra":1216,"ĠAl":1217,"Ġsol":1218,"ret":1219,"min":1220,"Ġwhile":1221,"ought":1222,"ash":1223,"ather":1224,"Ġ/":1225,"))":1226,"30":1227,"ually":1228,"We":1229,"Ġprocess":1230,"Ġprote":1231,"Ġrep":1232,"50":1233,"Ġlar":1234,"32":1235,"oid":1236,"Ġread":1237,"ah":1238,"els":1239,"ively":1240,"ained":1241,"ĠAnd":1242,"ified":1243,"Ġpresent":1244,"gan":1245,"formation":1246,"Ġ12":1247,"ired":1248,"ng":1249,"201":1250,"âĢĵ":1251,"Ġ\\[[@":1252,"ness":1253,"ression":1254,"be":1255,"fl":1256,"Ġgiv":1257,"Ġsom":1258,"ven":1259,"Ġdisc":1260,"Ġstudy":1261,"Ġthree":1262,"Ġstart":1263,"gg":1264,"ST":1265,"Ġlevel":1266,"Ġx":1267,"Ġgreat":1268,"ices":1269,"ved":1270,"Ġsecond":1271,"left":1272,"Ġref":1273,"What":1274,"AR":1275,"alk":1276,"any":1277,"ategory":1278,"ĠLet":1279,"line":1280,"Ġ18":1281,"ĠAs":1282,"arly":1283,"self":1284,"Ġdevelop":1285,"br":1286,"Ġgl":1287,"Ġposs":1288,"cul":1289,"ĠBut":1290,"Ġwithout":1291,"ĠPro":1292,"alth":1293,"Ġserv":1294,"ision":1295,"Ġequ":1296,"ton":1297,"igned":1298,"amp":1299,"Ġcourt":1300,"ument":1301,"Ġreport":1302,"Ġdep":1303,"ole":1304,"Ġterm":1305,"Ġbr":1306,"Ġduring":1307,"ĠIf":1308,"CR":1309,"ouse":1310,"Ġmet":1311,"med":1312,"Ġfr":1313,"uss":1314,"ams":1315,"Ġvalue":1316,"ality":1317,"ization":1318,"ier":1319,"NA":1320,"Ġav":1321,"mathb":1322,"ĠÃ":1323,"erg":1324,"Ġnon":1325,"He":1326,"Ġsupport":1327,"ffic":1328,"Ġant":1329,"Ġmethod":1330,"Ġsay":1331,"ider":1332,"Ġstill":1333,"ters":1334,",\\":1335,"lement":1336,"Ġlet":1337,"Ġorder":1338,"Ġcells":1339,"man":1340,"til":1341,"str":1342,"Ġpublic":1343,"ists":1344,"Ġperform":1345,"24":1346,"Ġpa":1347,"ross":1348,"ane":1349,"$.":1350,"'m":1351,"raph":1352,"Ġsmall":1353,"ided":1354,"ãĤ":1355,"://":1356,"ĠHow":1357,"dition":1358,"Ġhelp":1359,"yn":1360,"Ġpatients":1361,"Ġmust":1362,"ially":1363,"$,":1364,"ÑĤ":1365,"oh":1366,"amb":1367,"az":1368,"ency":1369,"OR":1370,"land":1371,"view":1372,"Ġstate":1373,"oad":1374,"anc":1375,"rt":1376,"Ġtake":1377,"Ġ//":1378,"\":":1379,"ving":1380,"',":1381,"Ġ20":1382,"Ġcount":1383,"Ġline":1384,"Ġgroup":1385,"Ġday":1386,"Ð¸":1387,"Ġlast":1388,"Ġcle":1389,"Ã¤":1390,"Ġappe":1391,"You":1392,"Ġimport":1393,"Ġactiv":1394,"ds":1395,"Ġdesc":1396,"Ġcent":1397,"EN":1398,"Ġ**":1399,"ray":1400,"aw":1401,"Ġprev":1402,"me":1403,"ron":1404,"Ġed":1405,"Ġrun":1406,"Ġproble":1407,"ES":1408,"Ġagainst":1409,"oot":1410,"Category":1411,"Ġexpl":1412,"Ġsignific":1413,"Ġname":1414,"less":1415,"0000":1416,"ify":1417,"atic":1418,"Ġlead":1419,"ĠYou":1420,"22":1421,"Ġcre":1422,".âĢĿ":1423,"irc":1424,"ulation":1425,"ished":1426,"Ġchild":1427,"ability":1428,"Ġfam":1429,"aj":1430,"IT":1431,"acter":1432,"idence":1433,"Ġperson":1434,"Ġquest":1435,"80":1436,"not":1437,"tt":1438,"ek":1439,"Ġfin":1440,"ames":1441,"Ġoper":1442,"Ġart":1443,"meric":1444,"\\[":1445,"Ġdel":1446,"40":1447,"::":1448,"chn":1449,"que":1450,"Ġcontrol":1451,"ĠÎ":1452,"ead":1453,"hip":1454,"ĠNew":1455,"Ġ15":1456,"Ġvari":1457,"Ġpur":1458,"Ġconf":1459,"Ġstand":1460,"Ġproper":1461,"eta":1462,"Ġhy":1463,"Let":1464,"rict":1465,"aim":1466,"Ġgoing":1467,"Fig":1468,"Ġdem":1469,"'re":1470,"da":1471,"Ġdev":1472,"Ġaround":1473,"!\"":1474,"ww":1475,"Ġopt":1476,"ik":1477,"Ġdirect":1478,"Ġhead":1479,"ience":1480,"itive":1481,"Ġu":1482,"Ġinc":1483,"Ġerr":1484,"ides":1485,"Ġwr":1486,"urther":1487,"(-":1488,"Ġinformation":1489,"abel":1490,"ysis":1491,"pha":1492,"Ġlife":1493,"ĊĊĠĠĠ":1494,"ology":1495,"serv":1496,"Ġsl":1497,"ĠShe":1498,"Ġpost":1499,"ots":1500,"ĠZ":1501,"und":1502,"ource":1503,"atch":1504,"ets":1505,"23":1506,"Ġpass":1507,"Ġmeas":1508,"Ġtype":1509,"Ġtoo":1510,"arm":1511,"ium":1512,"ination":1513,"Ġelect":1514,"Ġbre":1515,"200":1516,"ott":1517,"ured":1518,"Ġiss":1519,"ittle":1520,"ately":1521,"Ġreal":1522,"99":1523,"ething":1524,"Ġopen":1525,"ior":1526,"Ġanother":1527,"agn":1528,"Ġcr":1529,"---":1530,"Ġworld":1531,"Ġsignificant":1532,"ĠTr":1533,"ĠWh":1534,"Ġmight":1535,"ission":1536,"AN":1537,"64":1538,"gen":1539,"for":1540,"Ġresults":1541,"ral":1542,"def":1543,"ural":1544,"Ġhum":1545,"Ġident":1546,"60":1547,"ains":1548,"Ġrest":1549,"This":1550,"pec":1551,"Ġmult":1552,"Ġtreat":1553,"AL":1554,"Ġcare":1555,"Ġcontin":1556,"bl":1557,"eral":1558,"Ġwithin":1559,"ital":1560,"Ġfollowing":1561,"ivers":1562,"Ġtem":1563,"Ġmodel":1564,"ived":1565,"here":1566,"Ġlaw":1567,"].":1568,"Ġdeterm":1569,")\\":1570,"ording":1571,"ently":1572,"orn":1573,"ways":1574,"Ġstruct":1575,"Ġes":1576,"Ġlim":1577,"Ġsince":1578,"Ġallow":1579,"akes":1580,"ĠThey":1581,"ote":1582,"aterial":1583,"duct":1584,"(\"":1585,"mathcal":1586,"ration":1587,"name":1588,"lex":1589,"fer":1590,"ional":1591,"ĠX":1592,"att":1593,"arn":1594,"thing":1595,"ably":1596,"Ġmean":1597,"Ġinterest":1598,"work":1599,"Ġbeh":1600,"}(":1601,"Ġadv":1602,"ĠDe":1603,"Ġwom":1604,"Ġimp":1605,"ĠSh":1606,"Ġocc":1607,"33":1608,"Ġtry":1609,"Ġpower":1610,"ĠAmeric":1611,"Ġturn":1612,"by":1613,"Ġmark":1614,"Ġcondition":1615,"Ġlist":1616,"28":1617,"Ġnever":1618,"ĠNo":1619,"ither":1620,"ĠOn":1621,"ential":1622,"Ġsing":1623,"ury":1624,"ackage":1625,"âĢľ":1626,"Ġsk":1627,"27":1628,"resent":1629,"iness":1630,"Ġsomething":1631,"ves":1632,"Ġaddition":1633,"ĠĠĠĠĠĠĠĠĠĠĠĠĠĠĠĠĠĠĠĠĠĠĠĠ":1634,"alpha":1635,"Ġ14":1636,"ĠCl":1637,"Ð½":1638,"ts":1639,"Ġask":1640,"Ġfew":1641,"ives":1642,"Ġrece":1643,"Ġseem":1644,"CT":1645,"iff":1646,"Ġvis":1647,"Ġexample":1648,"chool":1649,"Ġlittle":1650,"bers":1651,"Ġhapp":1652,"Ġcurrent":1653,"]\\].":1654,"ule":1655,"rop":1656,"Ġplace":1657,"Ġredu":1658,"rel":1659,"arg":1660,"Ġreally":1661,"face":1662,"son":1663,"Ġbas":1664,"ploy":1665,"Ġ16":1666,"Ġleft":1667,"Ġve":1668,"35":1669,"Ex":1670,"Ġfield":1671,"Ñģ":1672,"Ġrespect":1673,"stand":1674,"Ġgiven":1675,"dd":1676,"Ġless":1677,"ĠIs":1678,"Ġcommun":1679,"Ġbest":1680,"Ġchang":1681,"Ġpop":1682,"Ġbus":1683,"ml":1684,"cript":1685,"hor":1686,"ho":1687,"Ġincluding":1688,"Ġput":1689,"ype":1690,"Ġrele":1691,"Ġgot":1692,"ertain":1693,"htt":1694,"ÑĢ":1695,"Ġlow":1696,"ining":1697,"osed":1698,"ised":1699,"================":1700,"ED":1701,"sec":1702,"Ġcome":1703,"34":1704,"ĠThere":1705,"Ġlight":1706,"Ġassoci":1707,"gram":1708,"Ġold":1709,"Ġ{#":1710,"____":1711,"ope":1712,"eter":1713,"ĠCon":1714,"29":1715,"Ġinvest":1716,"AS":1717,"ĠRe":1718,"Ġpot":1719,"Ġ17":1720,"ĠHowever":1721,"Ġcal":1722,"Ġhig":1723,"Ġgover":1724,"ends":1725,"Ġhome":1726,"Ġcap":1727,"oss":1728,"26":1729,"Ġtechn":1730,"Ġmot":1731,"ety":1732,"Ġnext":1733,"Ġarg":1734,"ĠWhat":1735,"Ġ*/":1736,"apt":1737,"Ġfour":1738,"ivid":1739,"Ġprob":1740,"^{\\":1741,"ĊĊĠ":1742,"Ġtyp":1743,"ength":1744,"reg":1745,"vert":1746,"Ġ199":1747,"Ġclaim":1748,"ene":1749,"abl":1750,"Ġque":1751,"Ġbased":1752,"Ġtop":1753,"Ġgrow":1754,"Ã¡":1755,"ina":1756,"Ġobserv":1757,"ĊĠĠĠĠ":1758,"rap":1759,"05":1760,"inc":1761,"Ġ$$\\":1762,"ump":1763,"Ġbo":1764,"yt":1765,"bs":1766,"ãĥ":1767,"Ġmonth":1768,"ery":1769,"ĊĠĠ":1770,"Con":1771,"Ġimportant":1772,"Ġsam":1773,"aining":1774,"ĠPh":1775,"Ġindic":1776,"Ch":1777,"ĠAr":1778,"Ġlarge":1779,"ribut":1780,"Ġanalysis":1781,"Ġder":1782,"Re":1783,"Ġhealth":1784,"37":1785,"lection":1786,"Ġobject":1787,"Ġsit":1788,"Ġleg":1789,"ari":1790,"ference":1791,"Ġbi":1792,"Ġbro":1793,"ee":1794,"21":1795,"Ġparticular":1796,"Ġapplic":1797,"Ġdescrib":1798,"Ġprof":1799,"Ġbelie":1800,"Ġsugg":1801,"Ġsuggest":1802,"Ġbetter":1803,",âĢĿ":1804,"uck":1805,"ern":1806,"Ġgovern":1807,"ĠSc":1808,"roll":1809,"36":1810,"icro":1811,"mb":1812,"mun":1813,"arget":1814,"ird":1815,"Ġchange":1816,"Ð¾Ð":1817,"reen":1818,"Ġmen":1819,"uro":1820,"Ġobt":1821,"Ġwater":1822,"aps":1823,"new":1824,"Ġide":1825,"ccess":1826,"ocument":1827,"IS":1828,"por":1829,"ats":1830,"'ll":1831,"ended":1832,"####":1833,"ambda":1834,"Ġdr":1835,"ID":1836,"38":1837,"Ġabove":1838,"Ġthings":1839,"Ġeas":1840,"LE":1841,"requ":1842,"Pro":1843,"Ġcommon":1844,"ĠPl":1845,"RE":1846,"'ve":1847,"Ġden":1848,"leg":1849,"Ġ#":1850,"âĪ":1851,"Ġpath":1852,"Ġmov":1853,"hib":1854,"45":1855,"ilar":1856,"Ġview":1857,"plic":1858,"amma":1859,"elta":1860,"Ġsw":1861,"IC":1862,"Ġconne":1863,"ten":1864,"39":1865,"ples":1866,"Ġthought":1867,"ctor":1868,"'d":1869,"Ġhist":1870,"Ġfile":1871,"();":1872,"aring":1873,"ĠAll":1874,"ification":1875,"Ġleast":1876,"ĠFr":1877,"Ġwhether":1878,"Ġself":1879,"pped":1880,"ream":1881,"Ġ30":1882,"Ġproduct":1883,"isk":1884,"oor":1885,"Ġvers":1886,"ĠEx":1887,"$$":1888,"Ġfail":1889,"Ġhard":1890,"ĠSo":1891,"Ġcharacter":1892,"Ġproblem":1893,"Ġpossible":1894,"Ġdays":1895,"And":1896,"Ġposition":1897,"Ġalways":1898,"Ġinvol":1899,"Ġexpect":1900,"Ġ11":1901,"Ġdidn":1902,"ĠâĢĶ":1903,"mu":1904,"Ġhaving":1905,"Ġconsider":1906,"As":1907,"onse":1908,"add":1909,"Ġwon":1910,"action":1911,"ien":1912,"cur":1913,"ĠTo":1914,"Ġsever":1915,"Ġgive":1916,"Ġuntil":1917,"aut":1918,"Ġreason":1919,"HE":1920,"ault":1921,"Ġrecord":1922,"Ġcalled":1923,"Ġ{\\":1924,"Ġrese":1925,"Ġfeel":1926,"Ġknown":1927,"Ġside":1928,"Ġtot":1929,"ĠĠĠĠĠĠĠĠĠĠĠ":1930,")/":1931,"AC":1932,"ware":1933,"Ġvol":1934,"Ġopp":1935,"opy":1936,"ormal":1937,"co":1938,"Ġevidence":1939,"ait":1940,"Ġbig":1941,"ij":1942,"ask":1943,"ending":1944,"ung":1945,"Ġmus":1946,"rain":1947,"ÃŃ":1948,"aces":1949,"au":1950,"Ġquestion":1951,"Ã³":1952,"Ġdue":1953,"egin":1954,"Ġrepresent":1955,"ividual":1956,"Ġfree":1957,"Ġcour":1958,"Ġavail":1959,"che":1960,"Ġorgan":1961,"Ġprom":1962,"Ġimpro":1963,"Ġhuman":1964,"70":1965,"label":1966,"Ġ--":1967,"iod":1968,"Ġtreatment":1969,"ances":1970,"Ġbuild":1971,"acy":1972,"ological":1973,"75":1974,"Ġaway":1975,"Ġkeep":1976,"Ġsize":1977,"Ġlocal":1978,"ling":1979,"ĠUS":1980,"imal":1981,"Ġbook":1982,"Ġrad":1983,"ĠUnited":1984,"cont":1985,"ison":1986,"But":1987,"}^{":1988,"mathbb":1989,"To":1990,"play":1991,"hy":1992,"ajor":1993,"Ġlater":1994,"ĠGr":1995,"rences":1996,"etic":1997,"}_":1998,"outh":1999,"iron":2000,"part":2001,"though":2002,"igma":2003,"ĠAd":2004,"Ġfurther":2005,"epend":2006,"bar":2007,"Ġelse":2008,"Ġshown":2009,"Ġinit":2010,"rem":2011,"Ġsingle":2012,"********":2013,"idd":2014,"Ġdiv":2015,"alse":2016,"Cl":2017,"Ġsum":2018,"Ġfamily":2019,"Ġmain":2020,"},":2021,"icle":2022,"ET":2023,"}_{":2024,"hing":2025,"Ġtell":2026,"=\\":2027,"Ġ25":2028,"44":2029,"Ġtrue":2030,"Ġ</":2031,"sel":2032,"usion":2033,"Ġnet":2034,"ember":2035,"ready":2036,"Ġoffic":2037,"raw":2038,"pone":2039,"If":2040,"begin":2041,"var":2042,"Ġprevious":2043,"Ġey":2044,"ograph":2045,"Ġexpression":2046,"Ġcomb":2047,"inf":2048,"ĠApp":2049,"col":2050,"ĠThese":2051,"Ġfri":2052,"88":2053,"mat":2054,"Ġeither":2055,"ĠAt":2056,"pi":2057,"Ġindividual":2058,"org":2059,"Ġorig":2060,"Ġpred":2061,"ĠThat":2062,"ĠCol":2063,"uff":2064,"Ġseveral":2065,"ext":2066,"Ġtimes":2067,"ĠLe":2068,"ĠBl":2069,"na":2070,"('":2071,"Ġsimilar":2072,"Ġpay":2073,"resp":2074,"ĠStates":2075,"Ġlik":2076,"ressed":2077,"Ġfar":2078,"itor":2079,"65":2080,"enc":2081,"unt":2082,"Ġprovide":2083,"Ġprogram":2084,"Ġgeneral":2085,"AP":2086,"usep":2087,"69":2088,"ĠWhen":2089,"iment":2090,"Ġcho":2091,"ift":2092,"iversity":2093,"Ġunderstand":2094,"Ġmeans":2095,"Ġplan":2096,"usepackage":2097,"Ġcirc":2098,"ĠSp":2099,"ĠInd":2100,"alf":2101,"Ġable":2102,"Ġcost":2103,"âĪĴ":2104,"ued":2105,"ours":2106,"nd":2107,"nal":2108,"ĠCourt":2109,"Ġalong":2110,"iple":2111,"aken":2112,"Com":2113,"ohn":2114,"Ġabs":2115,"Ġmove":2116,"Ġsure":2117,"Ġfull":2118,"oups":2119,"ered":2120,"ume":2121,"ergy":2122,"04":2123,"Ġemploy":2124,"Ġcode":2125,"Ġjud":2126,"Ġweek":2127,"Ġavailable":2128,"ister":2129,"aligned":2130,"Ġbody":2131,"angle":2132,"back":2133,"Ġbusiness":2134,"Ġwar":2135,"}$$":2136,"Ġwhy":2137,"sw":2138,"Î±":2139,"ocial":2140,"Ġschool":2141,"Ġmaterial":2142,"Ġ13":2143,"ler":2144,"ched":2145,"cle":2146,"ored":2147,"Ġphys":2148,"Ġchildren":2149,"ser":2150,"oney":2151,"div":2152,"ãĢ":2153,"orth":2154,"Ġinfl":2155,"ering":2156,"Ġshort":2157,"Ġsequ":2158,"osp":2159,"phi":2160,"mon":2161,"Ġ24":2162,"Ġgame":2163,"itted":2164,"Ġthough":2165,"Ġalready":2166,"Ġhigher":2167,"Ġarea":2168,"Ġdiff":2169,"yle":2170,"Ġspecific":2171,"indow":2172,"Ġstudies":2173,"Ġcertain":2174,"Ġvi":2175,"opt":2176,"iving":2177,"Ġperiod":2178,"Ġthing":2179,"ising":2180,"Ġtold":2181,"go":2182,"OU":2183,"Ġhold":2184,"empt":2185,"mm":2186,"side":2187,"Ġamong":2188,"ney":2189,"Ġinf":2190,"Ġvalues":2191,"];":2192,"Ġ!":2193,"ards":2194,"Ġsent":2195,"rist":2196,"Ġproject":2197,"ried":2198,"Ġmajor":2199,"idth":2200,"data":2201,"sum":2202,"ley":2203,"Ġsat":2204,"ĠOr":2205,"Ġgovernment":2206,"Ġeng":2207,"Ġcame":2208,"oper":2209,"illion":2210,"ĠRes":2211,"For":2212,"Ġdise":2213,"Ġdesign":2214,"Ġenough":2215,"Ġdone":2216,"Ġcases":2217,"Ġupon":2218,"Ġsuper":2219,"95":2220,"Ġoften":2221,"ns":2222,"mit":2223,"Ġexist":2224,"85":2225,"Ġerror":2226,"ustom":2227,"mission":2228,"lected":2229,"Ġele":2230,"Ġ100":2231,"Ġkey":2232,"Ġpri":2233,"Ġparam":2234,"aster":2235,"Ġkind":2236,"Ġ>":2237,"Ġben":2238,"olution":2239,"Ġlay":2240,"Ġmom":2241,"urs":2242,"Ġport":2243,"ries":2244,"ament":2245,"Ġprim":2246,"-\\":2247,"Ġaction":2248,"67":2249,"most":2250,"_\\":2251,"vent":2252,"Ġwomen":2253,"Ġsubject":2254,"Ġlot":2255,"Ġcoun":2256,"ape":2257,"lambda":2258,"ounds":2259,"):":2260,"ĠCal":2261,"Ġtotal":2262,"eps":2263,"Ġstrong":2264,"II":2265,"Ġcrit":2266,"erc":2267,"90":2268,"ique":2269,"ables":2270,"Ġfore":2271,"qrt":2272,"eb":2273,"fficient":2274,"OM":2275,"Ġreview":2276,"utes":2277,"Ġmass":2278,"Ġrate":2279,"Ġcourse":2280,"Ġpract":2281,"ai":2282,"Ġteam":2283,"ĠĠĠĠĠĠĠĠĠ":2284,"ands":2285,"Ġsens":2286,"Ġaccess":2287,"Tr":2288,"chan":2289,"ubl":2290,"LL":2291,"Ġpriv":2292,"Ġ==":2293,"Ġsays":2294,"Ġneg":2295,"Ġmor":2296,"Ġhowever":2297,"AM":2298,"Ġmil":2299,"No":2300,"Ġtarget":2301,"Ġmar":2302,"ĠMr":2303,"}^":2304,"mod":2305,"Ġlevels":2306,"return":2307,"ux":2308,"})":2309,"Ġtalk":2310,"100":2311,"Ġpolit":2312,"Ġpress":2313,"Ġroom":2314,"Ġspace":2315,"Ġple":2316,"Ġdiscuss":2317,"af":2318,"aug":2319,"ibility":2320,"Ġsuccess":2321,"ores":2322,"ĠBe":2323,"Ġseen":2324,"use":2325,"Ġdom":2326,"Ġair":2327,"Ġassociated":2328,"ogn":2329,"Ġtrial":2330,"Ġmanag":2331,"Ġcaus":2332,"Ġtook":2333,"Ġver":2334,"fun":2335,"uit":2336,"ales":2337,"Ġinvestig":2338,"Ġenergy":2339,"Ġdefend":2340,"Ġlo":2341,"Ġfac":2342,"ush":2343,"sequ":2344,"How":2345,"ened":2346,"Ġenc":2347,"AD":2348,"ivity":2349,"ids":2350,"Ġbeg":2351,"SE":2352,"asing":2353,"cted":2354,"77":2355,"68":2356,"Ġphot":2357,"Ġnight":2358,"Ġreported":2359,"Ġevent":2360,"Ġage":2361,"key":2362,"gether":2363,"Ġtogether":2364,"Ġ${\\":2365,"uation":2366,"no":2367,"ories":2368,"rug":2369,"Ġbit":2370,"iver":2371,"On":2372,"uf":2373,"stit":2374,"sub":2375,"Ġonce":2376,"čĊ":2377,"Ġresponse":2378,"Ã¶":2379,"ribution":2380,"bib":2381,"uppose":2382,"48":2383,"{{\\":2384,"Ġ)":2385,"inter":2386,"Ġlove":2387,"Ġgroups":2388,"....":2389,"ators":2390,"Ġearly":2391,"verage":2392,"Ġaccount":2393,"conom":2394,"Ġrepl":2395,"ĠMar":2396,"bo":2397,"ged":2398,"ival":2399,"Name":2400,"Ġmaking":2401,"itle":2402,"31":2403,"Ġlower":2404,"mathbf":2405,"Ġamount":2406,"ception":2407,"Ġconv":2408,"viron":2409,"Ġlog":2410,"http":2411,"cret":2412,"OT":2413,"Ġwrit":2414,"55":2415,"ĠState":2416,"Ġhouse":2417,"table":2418,"ony":2419,"Al":2420,"ocus":2421,"Ġrequired":2422,"Ġactivity":2423,"Ġterms":2424,"Ġwent":2425,"cd":2426,"Ġcompared":2427,"Ġrequire":2428,"IG":2429,"Ġvir":2430,"osis":2431,"ĠCo":2432,"angu":2433,"Ġnecess":2434,"class":2435,"Ġaff":2436,"Ġacross":2437,"Ġdevelopment":2438,"ection":2439,"Ġpotential":2440,"Ġdou":2441,"Ġworking":2442,"clude":2443,"AA":2444,"Un":2445,"ĠAmerican":2446,"ION":2447,"Ġinj":2448,"Ġcheck":2449,"ension":2450,"Ġcult":2451,"Ġface":2452,"Ġever":2453,"Ġ50":2454,"Ġfinal":2455,"ians":2456,"Ġann":2457,"Ġimage":2458,"beta":2459,"Ġ%":2460,"ĊĠĠĠĠĠĠĠĠĠ":2461,".'":2462,"dex":2463,"rodu":2464,"Ð°Ð":2465,"ystem":2466,"Ġpast":2467,"Ġ([":2468,"Ġdeath":2469,"Ġear":2470,"atory":2471,"iction":2472,"Ġcomput":2473,"ption":2474,"enn":2475,"atures":2476,"Ġ([@":2477,"mber":2478,"aintiff":2479,"essage":2480,"à¤":2481,"wh":2482,"ga":2483,"Ġinclude":2484,"ones":2485,"Ġauthor":2486,"Ġbecome":2487,"ĠĊ":2488,"Ġrange":2489,"iation":2490,"Ġrelations":2491,"Ġmicro":2492,"Ġrisk":2493,"ude":2494,"^{-":2495,"]).":2496,"ĠUniversity":2497,"Ġtw":2498,"arrow":2499,"Ġred":2500,"mp":2501,"47":2502,"Ġtext":2503,"Ġdoesn":2504,"Ġexc":2505,"Ġdetail":2506,"Ġdoing":2507,"ges":2508,"89":2509,"There":2510,"Is":2511,"medi":2512,"Ġconditions":2513,"ĠJohn":2514,"une":2515,"----------------------------------------------------------------":2516,"ÂłÂł":2517,"this":2518,"eters":2519,"head":2520,"Ġissue":2521,"ilon":2522,"Ġmeet":2523,"66":2524,"lete":2525,"Ġestabl":2526,"Ġdescribed":2527,"Ġprovided":2528,"istic":2529,"uture":2530,"Ġsepar":2531,"Ġbar":2532,"Ġcomplet":2533,"\"}).":2534,"49":2535,"Ġeffects":2536,"Ġrespons":2537,"Ġobserved":2538,"respond":2539,"imate":2540,"Ġmechan":2541,"Ġchanges":2542,"ĠEng":2543,"Ġasked":2544,"ources":2545,"Type":2546,"Ġfrequ":2547,"Ġcannot":2548,"span":2549,"ĠMay":2550,"Ġsurface":2551,"Ġrole":2552,"oll":2553,"Ġaccording":2554,"Ġmeasure":2555,"Ġpercent":2556,"Ġincreased":2557,"ibr":2558,"Ġresearch":2559,"iter":2560,"Ġep":2561,"Ġmind":2562,"Ġcou":2563,"test":2564,"Ġcompany":2565,"Ġyet":2566,"atter":2567,"Ġcomplex":2568,"Ġothers":2569,"Ġincrease":2570,"DE":2571,"eq":2572,"aced":2573,"icy":2574,"my":2575,"Ġtre":2576,"Ġservice":2577,"ĊĠĠĠĠĠĠĠĠĠĠĠĠĠĠĠĠĠĠĠ":2578,"Ġrather":2579,"\\_":2580,"Ġmoney":2581,"Ġtoward":2582,"elt":2583,"Ġcountry":2584,"irl":2585,"ĠGen":2586,"Ġconduct":2587,"Ġclear":2588,"illed":2589,"sigma":2590,"Ġsection":2591,"ĠSee":2592,"ground":2593,"ĠOne":2594,"87":2595,"So":2596,"ÏĦ":2597,"Ġcontent":2598,"Ġprotein":2599,"Ġsoft":2600,"Ġsource":2601,"ĠPr":2602,"Ġstructure":2603,"time":2604,"Ġmonths":2605,"Ġuser":2606,"sqrt":2607,"ino":2608,"Ġparticip":2609,"bt":2610,"Ġbase":2611,"Ġblood":2612,"ĠCan":2613,"Ġfactors":2614,"pm":2615,"Id":2616,"Ġpick":2617,"Ġfive":2618,"order":2619,"Ġnormal":2620,"ava":2621,"Ġcut":2622,"Ġsignal":2623,"Ġthird":2624,"ucle":2625,"Ġjob":2626,"Ġstandard":2627,"Ġcompon":2628,"roid":2629,"Res":2630,"rix":2631,"Ġ`":2632,"ĠThen":2633,"Ġce":2634,"ING":2635,"ceed":2636,"ĠCar":2637,"02":2638,"Ph":2639,"Ġdri":2640,"Ġcorre":2641,"Ġwhole":2642,"Ġcy":2643,"ogen":2644,"Ġmatter":2645,"CC":2646,"nt":2647,"~~":2648,"ules":2649,"ĠBr":2650,"ey":2651,"Ġid":2652,"equ":2653,"ĠGod":2654,"Ċĉĉĉ":2655,"ixed":2656,"Ġland":2657,"Ġtemper":2658,"Ġcalcul":2659,"ependent":2660,"rew":2661,"Ċĉĉĉĉ":2662,"ortun":2663,"now":2664,"ĠFig":2665,"Ġtaken":2666,"Ġagre":2667,"Ġsite":2668,"vironment":2669,"ober":2670,"%)":2671,"ĠĠĠĠĠĠĠĠĠĠ":2672,"Ġsocial":2673,"rr":2674,"Ġquant":2675,"ĠCoun":2676,"ache":2677,"minist":2678,"Ġclin":2679,"itch":2680,"irm":2681,"Ġperformed":2682,"Ġflow":2683,"Ġactually":2684,"Ġdam":2685,"artment":2686,"oph":2687,"mathrm":2688,"86":2689,"Ġshowed":2690,"09":2691,"raft":2692,"ops":2693,"AG":2694,"OS":2695,".)":2696,"arent":2697,"www":2698,"Ġlimit":2699,"icult":2700,"string":2701,"}{\\":2702,"ruction":2703,"ches":2704,"ĊĊĠĠĠĠĠĠĠ":2705,"Ġbelow":2706,"Ġmultiple":2707,"Ġvarious":2708,"alt":2709,"Ġanything":2710,"bit":2711,"Ġspecial":2712,"Ġversion":2713,"Ġhalf":2714,"Ġnothing":2715,"Ġsystems":2716,"ĠRep":2717,"Ġprior":2718,"ze":2719,"Ġshows":2720,"Ġcorrespond":2721,"Ġbehav":2722,"Ġdemon":2723,"ĠWith":2724,"off":2725,"Ġdisease":2726,"ached":2727,"><":2728,"ires":2729,"ĠAfter":2730,"gamma":2731,"Ġclos":2732,"abor":2733,"Ġdetect":2734,"urope":2735,"ession":2736,"Ġfood":2737,"Ġbreak":2738,"ensity":2739,"uration":2740,"Ġregard":2741,"idered":2742,"ĠTe":2743,"Ġapproach":2744,"gment":2745,"Ġrequest":2746,"Ġpropos":2747,"Ġbenef":2748,"imum":2749,"ĠMy":2750,"Ġsyn":2751,"date":2752,"omet":2753,"ĊĊĊ":2754,"Ġviol":2755,"Ġmembers":2756,"84":2757,"big":2758,"Ġalmost":2759,"Ġpositive":2760,"ĠĠĠĠĠĠĠĠĠĠĠĠĠĠĠĠĠĠĠĠĠĠĠĠĠĠĠĠĠĠĠĠĠĠĠĠĠĠĠĠĠĠĠĠĠĠĠĠĠĠĠĠĠĠĠĠĠĠĠĠĠĠĠĠĠĠĠĠĠĠĠĠĠĠĠĠĠĠĠĠĠĠĠĠĠĠĠĠĠĠĠĠĠĠĠĠĠĠĠĠĠĠĠĠĠĠĠĠĠĠĠĠĠĠĠĠĠĠĠĠĠĠĠĠĠĠĠĠ":2761,"umber":2762,"List":2763,"+\\":2764,"inary":2765,"Ã¥":2766,")(":2767,"Ġfocus":2768,"ero":2769,"cular":2770,"That":2771,"Ġmoment":2772,"CH":2773,"String":2774,"Ġeval":2775,"ief":2776,"Ġlikely":2777,"Ġut":2778,"Ġmax":2779,"Ġconcer":2780,"Ġconsidered":2781,"pping":2782,"Ġ||":2783,"Ġconcent":2784,"79":2785,"uk":2786,"Ġmakes":2787,"ĠPat":2788,"Ġmarket":2789,"Ġpoints":2790,"Ġexperience":2791,"Ġcreate":2792,"OP":2793,"Ġ(*":2794,"Ġobtained":2795,"Ġheart":2796,"load":2797,"Ġsix":2798,"Ġweight":2799,"ĠâĢĺ":2800,"Ġfactor":2801,"ike":2802,"Ġq":2803,"Ġblack":2804,"\")":2805,"log":2806,"Sh":2807,"Ġclose":2808,"where":2809,"Ġspect":2810,"Ġdevice":2811,"onal":2812,"lim":2813,"ĠYork":2814,"Ġsus":2815,"Ġaffect":2816,"Ġlooking":2817,"Ġtrying":2818,"iding":2819,"Ġnear":2820,"comm":2821,"ips":2822,"Ġsex":2823,"Ġoccur":2824,"Ġer":2825,"ĠChrist":2826,"Ġtable":2827,"Ġsil":2828,"Ġcross":2829,"Ġhtt":2830,"Ġcreat":2831,"Ġdifficult":2832,"itting":2833,"Ġdig":2834,"Ġdemonstr":2835,"Val":2836,"Ġrat":2837,"Ġcustom":2838,"Figure":2839,"ideo":2840,"aff":2841,"cing":2842,"rec":2843,"Ġcity":2844,"Ġcause":2845,"anguage":2846,"Ġmagn":2847,"^\\":2848,"td":2849,"Ġfuture":2850,"Ġill":2851,"Ġdrug":2852,"struct":2853,"Ġdat":2854,"ĠĠĠĠĠĠĠĠĠĠĠĠĠĠĠ":2855,"but":2856,"rho":2857,"Ġhom":2858,"Cont":2859,"Ġentire":2860,"Î¿":2861,"Ġdecre":2862,"isc":2863,"âĢ¦":2864,"Ġproperty":2865,"Ġbelieve":2866,"à¸":2867,"Ġste":2868,"ÐµÐ":2869,"Ġyoung":2870,"Ġmut":2871,"001":2872,"orld":2873,"Ġstring":2874,"value":2875,"ilt":2876,"Ġadded":2877,"iet":2878,"ply":2879,"Ġconsist":2880,"Ġfav":2881,"ĠFl":2882,"Ġparent":2883,"ii":2884,"see":2885,")*":2886,"Ġnat":2887,"ties":2888,"Ġtax":2889,"Ġhistory":2890,"ternal":2891,"IM":2892,"Ġeconom":2893,"ĠBy":2894,"Ġang":2895,"Ġapplication":2896,"Ġintegr":2897,"Ġsolution":2898,"Ġtrad":2899,"ama":2900,"ĠAss":2901,"08":2902,"Ġrelated":2903,"Ar":2904,"ulated":2905,"Ġincluded":2906,"Ġminutes":2907,"ball":2908,"$-":2909,"------------":2910,"year":2911,"Ġfront":2912,"body":2913,"Ġcontr":2914,"////":2915,"Ġheld":2916,"Ġregion":2917,"fully":2918,"ros":2919,"07":2920,"Ġcancer":2921,"rown":2922,"AB":2923,"Ġstory":2924,"Ġeyes":2925,"Ġansw":2926,"Ġpaper":2927,"etition":2928,"Ġdefined":2929,"ĠCent":2930,"ĠAN":2931,"Ġidea":2932,"resh":2933,"Ġur":2934,"itten":2935,"Ġflu":2936,"Ġassess":2937,"Ġwalk":2938,"03":2939,"chie":2940,"lying":2941,"Ġdecl":2942,"42":2943,"App":2944,"],[@":2945,"import":2946,"ĠIN":2947,"46":2948,"ĠSte":2949,"Ġseason":2950,"Ġaddress":2951,"Ġrelationship":2952,"hel":2953,"ĠPar":2954,"Ġloss":2955,"Ġpubl":2956,"Ġreceived":2957,"ada":2958,"aged":2959,"Ġseries":2960,"Ġpo":2961,"Ñĥ":2962,"Ġfall":2963,"inn":2964,"rs":2965,"Ġdeal":2966,"Ġsimple":2967,"Ġgetting":2968,"ster":2969,"Ġblock":2970,"Col":2971,"html":2972,"Ġrespectively":2973,"andom":2974,"aging":2975,"Ġlength":2976,"ences":2977,"ening":2978,"xi":2979,"Ġmaint":2980,"Ġattack":2981,"Ġimmun":2982,"Ġmiss":2983,"Ġcamp":2984,"Ġworks":2985,"uly":2986,"Î¹":2987,"Ġnetwork":2988,"Ġvoid":2989,"*,":2990,"She":2991,"Ġhimself":2992,"oud":2993,"iting":2994,"Ġaccept":2995,"pecially":2996,"Ġappl":2997,"Ġwords":2998,"Ġ=>":2999,"dro":3000,"ĠTHE":3001,"mitted":3002,"delta":3003,"izing":3004,"Ġcoll":3005,"iqu":3006,"ledge":3007,"ĠMore":3008,"57":3009,"Ġsignificantly":3010,"ises":3011,"pose":3012,"ĠÂ§":3013,"US":3014,"ols":3015,"plement":3016,"Ġ$(":3017,"wise":3018,"Ġthus":3019,"like":3020,"nu":3021,"net":3022,"verse":3023,"bed":3024,"IR":3025,"tic":3026,"Ġdefin":3027,"ems":3028,"199":3029,"ĠHis":3030,"Ġbound":3031,"Ġtum":3032,"ĠEn":3033,"Ġfig":3034,"Ġlearn":3035,"Ġhours":3036,"When":3037,"leq":3038,"Ġmillion":3039,"isf":3040,"../":3041,"ĠMc":3042,"Ġperformance":3043,"59":3044,"Ġsaw":3045,"Ġlink":3046,"selves":3047,"ĠMed":3048,"obal":3049,"ĠAm":3050,"Ġstarted":3051,"Ġstates":3052,"Ġprivate":3053,"oms":3054,"Ġcontact":3055,"Ġneeded":3056,"ĠĠĠĠĠĠĠĠĠĠĠĠ":3057,"ĠEurope":3058,"Ġdecision":3059,"more":3060,"Ġtoday":3061,"Ġdifference":3062,"ferences":3063,"Ġvia":3064,"Ġadj":3065,"umn":3066,"Â±":3067,"gree":3068,"06":3069,"Ġpopulation":3070,"></":3071,"All":3072,"Ġpain":3073,"Ġbad":3074,"IL":3075,"Ġwanted":3076,"43":3077,"}}\\":3078,"Ġadditional":3079,"Ġmethods":3080,"ĠMan":3081,"Ġinhib":3082,"Ġfilm":3083,"anced":3084,"inding":3085,"do":3086,"Ġchall":3087,"Ã¼":3088,"Ġshall":3089,"Ġintrodu":3090,"ili":3091,"ĠCor":3092,"Ġsomeone":3093,"ĠGe":3094,"uth":3095,"Ġeff":3096,"miss":3097,"ocal":3098,"Ġmother":3099,"Ġpattern":3100,"Ġtherefore":3101,"Ġlines":3102,"ĠNot":3103,"inks":3104,"anks":3105,"Ġinflu":3106,"ender":3107,"Ġpatient":3108,"overed":3109,"Ġassum":3110,"with":3111,"Ġcommunity":3112,"tau":3113,"Ġgrowth":3114,")}":3115,"comp":3116,"istance":3117,"Ġcard":3118,"76":3119,"/*":3120,"IP":3121,"theta":3122,"TR":3123,"Ġenvironment":3124,"Ġ21":3125,"Ġparty":3126,"gl":3127,"ĠPol":3128,"ocr":3129,"Ġindu":3130,"Ġseems":3131,"ensive":3132,"Ġbegin":3133,"oke":3134,"Ġcompl":3135,"![":3136,"Ġitself":3137,"file":3138,"78":3139,"Ø§":3140,"Ġachie":3141,"atus":3142,"View":3143,"atively":3144,"Î½":3145,"Ġdisplay":3146,"oved":3147,"Ġdie":3148,"omega":3149,"Wh":3150,"Ġlive":3151,"Ġdest":3152,"ych":3153,"41":3154,"Ġimprove":3155,"Ġquick":3156,"Ġword":3157,"reet":3158,"gress":3159,"ĠAct":3160,"amed":3161,"Ġprobably":3162,"atal":3163,"ĠDo":3164,"Ġhost":3165,"Ġwhite":3166,"based":3167,"yp":3168,"ills":3169,"EM":3170,"ĠIm":3171,"Ġfoot":3172,"PR":3173,"Ġappear":3174,"Ġattempt":3175,"arc":3176,"vant":3177,"odes":3178,"times":3179,"define":3180,"Ġrecogn":3181,"ying":3182,"Ġinstead":3183,"Ġsearch":3184,"Ġfund":3185,"come":3186,"ĠMe":3187,"ynam":3188,"ilities":3189,"Ġtaking":3190,"ï¼":3191,"eks":3192,"Ġreve":3193,"ĠDr":3194,"used":3195,"Ġneeds":3196,"Ġpan":3197,"Ġmotion":3198,"urch":3199,"Ġ\\\\":3200,"ĠĠĠĠĠĠĠĠĠĠĠĠĠ":3201,"unch":3202,"iles":3203,"Ġinvolved":3204,"CL":3205,"56":3206,"iddle":3207,"Ġmodels":3208,"code":3209,"Ġbehind":3210,"Ġstep":3211,"partial":3212,"Ġpret":3213,"Ġground":3214,"comes":3215,"ä¸":3216,"gest":3217,"My":3218,"Ġfalse":3219,"uments":3220,"stant":3221,"ederal":3222,"pri":3223,"Ġgirl":3224,"ha":3225,"ĠCity":3226,"des":3227,"ana":3228,"OC":3229,"Ġadminist":3230,"Data":3231,"________":3232,"Table":3233,"Ġoriginal":3234,"Ġproblems":3235,"Ġservices":3236,"Ġpage":3237,"Ġquite":3238,"ste":3239,"Ġexact":3240,"light":3241,"Ġexec":3242,"83":3243,"PE":3244,"olve":3245,"ese":3246,"Ġcomes":3247,"âĢĲ":3248,"Se":3249,"IV":3250,"Ġeverything":3251,"ites":3252,"...\"":3253,"aled":3254,"Ġdefendant":3255,"astic":3256,"infty":3257,"Ġknew":3258,"Ġlooked":3259,"ĠGu":3260,"ĊĠĠĠĠĠĠĠĠĠĠĠĠĠĠĠĠĠĠĠĠĠĠĠĠĠĠĠĠĠĠĠĠ":3261,"Ġexpected":3262,"Ġess":3263,"xim":3264,"ĠCont":3265,"Ġdistribution":3266,"FF":3267,"Ġanti":3268,"OL":3269,"Â°":3270,"Ġvo":3271,"ecause":3272,"Ġproduction":3273,"Ġtemperature":3274,"ĠQu":3275,"icense":3276,"ĠÂ±":3277,"Ġinput":3278,"size":3279,"Ġsense":3280,"Ġpredict":3281,"Ġelement":3282,"Ġ29":3283,"Ġdistrict":3284,"\");":3285,"oo":3286,"Ġfire":3287,"Ġquality":3288,"])":3289,"aving":3290,"Ġles":3291,"Ġcompar":3292,"Ġcolor":3293,"hem":3294,"Ġstay":3295,"arr":3296,"PS":3297,"Ġsem":3298,"Ġload":3299,"Ġinitial":3300,"}$,":3301,"Ġinside":3302,"book":3303,"document":3304,"Ġ22":3305,"ĠThus":3306,"Ġnecessary":3307,"Ġcontract":3308,"Ġestim":3309,"Ã£":3310,"ĠNational":3311,"Ã§":3312,"ĠDep":3313,"Ġindust":3314,"Ġdim":3315,"Ġ$$":3316,"sk":3317,"Ġgene":3318,"position":3319,"UR":3320,"ĠGerm":3321,"Ġbring":3322,"Ġnucle":3323,"rote":3324,"ĠPres":3325,"eration":3326,"UT":3327,"Ġwin":3328,"Ġfriend":3329,"Ġrecent":3330,"._":3331,"Ġinstall":3332,"dom":3333,"Ġeduc":3334,"ribute":3335,"MS":3336,"ulations":3337,"Ġespecially":3338,"inally":3339,"bf":3340,"Ġwait":3341,"ĠJan":3342,"Ġoutside":3343,"Ġ...":3344,"Ġson":3345,"ae":3346,"Ġ28":3347,"Ġbir":3348,"Im":3349,"Ġproced":3350,"\\\\":3351,"den":3352,"ades":3353,"Ġlonger":3354,"53":3355,"ram":3356,"Ġimplement":3357,"utions":3358,"Ġpresence":3359,"quad":3360,"}$.":3361,"box":3362,"Ġsimply":3363,"ĠDef":3364,"Ġpersonal":3365,"Ġexperiment":3366,"Ġdoor":3367,"illi":3368,"Ġjo":3369,"lig":3370,"rc":3371,"Ġissues":3372,"Ġtiss":3373,"Ġpie":3374,"ado":3375,"With":3376,"Ġprint":3377,"ĠĠĠĠĠĠĠĠĠĠĠĠĠĠ":3378,"bre":3379,"Ġclinical":3380,"Ġ(-":3381,"Ġâ":3382,"rav":3383,"Ġfeatures":3384,"Ġ40":3385,"Ġaverage":3386,"Ġdocument":3387,"ging":3388,"vious":3389,"Ġfather":3390,"Îµ":3391,"Ġevents":3392,"Ġbecame":3393,"itude":3394,"istics":3395,"hers":3396,"bor":3397,"Ġprovides":3398,"')":3399,"Ġwall":3400,"Ġcapt":3401,"At":3402,"Ġstra":3403,"rapy":3404,"Ġbegan":3405,"Ġphase":3406,"state":3407,"Ġsample":3408,"Ġcorrel":3409,"bject":3410,"Ġdetermined":3411,"Ġsett":3412,"Ð»":3413,"Ġwoman":3414,"Ġspecies":3415,"word":3416,"ĠAg":3417,"Ġmedia":3418,"ccording":3419,"olic":3420,"field":3421,"++":3422,"Ġsequence":3423,"Ġcomplete":3424,"Ġfem":3425,"rim":3426,"width":3427,"Ġwrong":3428,"dis":3429,"Ġsurv":3430,"sl":3431,"Ġeffort":3432,"Ġ27":3433,"Ġ26":3434,"ĠCD":3435,"Ġformer":3436,"54":3437,"Ġmusic":3438,"arily":3439,"Delta":3440,"Ġdu":3441,"clusion":3442,"ymb":3443,"\".":3444,"refore":3445,"Ġlanguage":3446,"Ġsatisf":3447,"osition":3448,"Ġcorrect":3449,"ĠBo":3450,"Ġoutput":3451,"mary":3452,"]{},":3453,"pre":3454,"Ġdiagn":3455,"\\*":3456,"cription":3457,"raction":3458,"Ġcommunic":3459,"ronic":3460,"By":3461,"Ġremain":3462,"aves":3463,"dered":3464,"su":3465,"Ġslow":3466,"Ġdepend":3467,"Ġfunctions":3468,"Ġge":3469,"uous":3470,"Ġpressure":3471,"const":3472,"Ġox":3473,"Ġ/*":3474,"Ġeasy":3475,"Ġmole":3476,"RNA":3477,"Ġlack":3478,"ĠOF":3479,"Ġplaintiff":3480,"Ġstrateg":3481,"Ġstudents":3482,"elling":3483,"Ġimpact":3484,"down":3485,"Ġpoly":3486,"ENT":3487,"Ġforce":3488,"Ġcopy":3489,"Ġvideo":3490,"Pl":3491,"ospital":3492,"Ġ23":3493,"Ġir":3494,"Ġwindow":3495,"px":3496,"Ġhor":3497,"Ġhyp":3498,"Ġcry":3499,"olds":3500,"^*":3501,"Ñı":3502,"Ġprinc":3503,"ĠAb":3504,"82":3505,"oon":3506,"Ġprec":3507,"Ġtypes":3508,"Ġhot":3509,"ĠPart":3510,"Ġpolice":3511,"airs":3512,"Ġrunning":3513,"itary":3514,"Ġsoon":3515,"actions":3516,"OD":3517,"Ġphysical":3518,"Ġstri":3519,"Ġdate":3520,"Ġstop":3521,"Ġhope":3522,"era":3523,"idge":3524,"Ġacid":3525,"SS":3526,"that":3527,"Ġsamples":3528,"Ġturned":3529,"ĠNe":3530,"Ġquestions":3531,"Ġgave":3532,"itation":3533,"annel":3534,"Ġanaly":3535,"Ġderiv":3536,"Ã¨":3537,"Ġtrack":3538,"Ġmemory":3539,"Ġwritten":3540,"Ġfelt":3541,"ags":3542,"ĠPer":3543,"En":3544,"72":3545,"Ġisn":3546,"sim":3547,"list":3548,"Ġcoming":3549,"Ġcred":3550,"Ġleave":3551,"Ġchem":3552,"ĠRev":3553,"haps":3554,"icon":3555,"Ġmember":3556,"Ġpresented":3557,"Ġfollowed":3558,"umb":3559,"Ġcreated":3560,"Ġlate":3561,"Ġhands":3562,"Ġofficial":3563,"74":3564,"ributed":3565,"čĊĠĠĠ":3566,"Ġpolitical":3567,"Ġrights":3568,"63":3569,"Ġ},":3570,"Ġheav":3571,"Ġsle":3572,"param":3573,"Ġeffective":3574,"|\\":3575,"Ġten":3576,"Ġforward":3577,"Ġproducts":3578,"ogle":3579,"tilde":3580,"52":3581,"Ġpack":3582,"Ġrev":3583,"ĠPe":3584,"Ġdirectly":3585,"Ġvalid":3586,"Ġwasn":3587,"Ġsound":3588,"cm":3589,"ett":3590,"81":3591,"Gr":3592,"Ġevalu":3593,"Ġconfig":3594,"Ġtried":3595,"Ġconstit":3596,"ĠEl":3597,"Ġbur":3598,"Ġscreen":3599,"Ġparameters":3600,"Ġelements":3601,"ega":3602,"Ġindex":3603,"tered":3604,"Ġproperties":3605,"Ġgenes":3606,"Ġselect":3607,"sm":3608,"ague":3609,"ken":3610,"Ġ!=":3611,"https":3612,"char":3613,"ĠBrit":3614,"ĠGo":3615,"Ġweeks":3616,"ĠEd":3617,"dev":3618,"lease":3619,"Ġago":3620,"lier":3621,"rief":3622,"Ġprimary":3623,"Ġnatural":3624,"ula":3625,"ults":3626,"Ġincreasing":3627,"Ġwrite":3628,"ĠComp":3629,"Ġrandom":3630,"Get":3631,"Ġcontext":3632,"Ġnull":3633,"Ġidentified":3634,"Ġfollows":3635,"Ġconstant":3636,"hood":3637,"Ġknowledge":3638,"Ġmi":3639,"lin":3640,"ĠPa":3641,"Ġdark":3642,"ĠWorld":3643,"Ġpolicy":3644,"ishing":3645,"Ġaccom":3646,"acc":3647,"Not":3648,"Ġconsum":3649,"Ġbuilding":3650,"Ġdetermine":3651,"Ġalleg":3652,"73":3653,"ĠDist":3654,"Ġprevent":3655,"ements":3656,"point":3657,"ĠWar":3658,"Ġcontroll":3659,"Ġanswer":3660,"Ġlost":3661,"\";":3662,"Ġframe":3663,"ĠDes":3664,"ĠReg":3665,"Ġnews":3666,"iber":3667,"Ġimmedi":3668,"fs":3669,"Ġareas":3670,"Ġbott":3671,"Ġmach":3672,"trans":3673,"Ġdeep":3674,"71":3675,"Ġgas":3676,"clus":3677,"58":3678,"amm":3679,"apan":3680,"ils":3681,"ĠSouth":3682,"Ã£o":3683,"Ġsort":3684,"Ġgreater":3685,"Ġinvention":3686,"ĠMin":3687,"ĠInc":3688,"oma":3689,"Ġwhose":3690,"Ġavoid":3691,"Ġsoftware":3692,"lementary":3693,"kn":3694,"ĠSch":3695,"Ġwatch":3696,"culate":3697,"Ġtransfer":3698,"function":3699,"uary":3700,"oe":3701,"****************":3702,"Ġpict":3703,"Ġ;":3704,"Ġexcept":3705,"Ġstatus":3706,"include":3707,"Ġlimited":3708,"Ġmap":3709,"51":3710,"}(\\":3711,"Ġps":3712,"Ġdeveloped":3713,"fection":3714,"CD":3715,"Ġfavor":3716,"ĠII":3717,"Ġbasis":3718,"Ðº":3719,"Ġbed":3720,"ĠAf":3721,"Ps":3722,"]^":3723,"They":3724,"Ġrelease":3725,"array":3726,"ĠNorth":3727,"Ġrefer":3728,"Ġmis":3729,"Ġapplied":3730,"Ġtraining":3731,"ĠRuss":3732,"Ġheard":3733,"Ġ?":3734,"ica":3735,"Ġalthough":3736,"Ġmedical":3737,"Ġstyle":3738,"icles":3739,"lish":3740,"asons":3741,"Ġful":3742,"Ġability":3743,"Ġthemselves":3744,"ĠAug":3745,"Ġmention":3746,"ĠIntern":3747,"ius":3748,"anger":3749,"ĠAust":3750,"Ġnature":3751,"Ġmice":3752,"reng":3753,"ography":3754,"gn":3755,"apter":3756,"ĠSim":3757,"rial":3758,"Ġmatch":3759,"Ġtheory":3760,"62":3761,"vere":3762,"Ġprep":3763,"hern":3764,"men":3765,"Ġaw":3766,"Ġsecur":3767,"och":3768,"ĠJust":3769,"Ġautom":3770,"Ġplayers":3771,"ĠSm":3772,"error":3773,"ĠÐ¿":3774,"Ġreduced":3775,"ĠTrump":3776,"Ġsal":3777,"Ġanyone":3778,"Ġarray":3779,"Ġparticularly":3780,"ios":3781,"pite":3782,"Ġpull":3783,"Ġpreviously":3784,"rupt":3785,"MA":3786,"plate":3787,"Ġround":3788,"Ġopportun":3789,"lege":3790,"Ġveh":3791,"Ġrespond":3792,"Ġcompan":3793,"erson":3794,"Ġincludes":3795,"Ġusually":3796,"rangle":3797,"ager":3798,"IF":3799,"Ġsn":3800,"pper":3801,"fra":3802,"Ġgrad":3803,"Ġreference":3804,"Ġund":3805,"ĠSome":3806,"Ġfast":3807,"Err":3808,"Ġliving":3809,"Ġdraw":3810,"ĠTherefore":3811,"uel":3812,"Ġalone":3813,"Ġren":3814,"Ġbox":3815,"Ġrecomm":3816,"Ġfight":3817,"Ġaud":3818,"ĠOct":3819,")$.":3820,"ivil":3821,"ĠOur":3822,"iments":3823,"ĠDav":3824,"ellow":3825,"Ġlayer":3826,"Ġwebs":3827,"cdot":3828,"Ġcontain":3829,"61":3830,"lor":3831,"ashing":3832,"Ġcover":3833,"isions":3834,"Ad":3835,"roph":3836,"Ġgenerally":3837,"ĠFurther":3838,"oles":3839,"Ġrepe":3840,"Ġ:=":3841,"aches":3842,"print":3843,"Ġdead":3844,"zy":3845,"De":3846,"earch":3847,"fered":3848,"\\])":3849,"rite":3850,"*~":3851,"ĠSuppose":3852,"igen":3853,"ĠHere":3854,"Ġ&&":3855,"Ġfriends":3856,"PL":3857,"Ġhref":3858,"Ġprot":3859,"Ġbroad":3860,"Ġpublished":3861,"Qu":3862,"Ġanim":3863,"script":3864,"illing":3865,"Ïĥ":3866,"orks":3867,"iven":3868,"SD":3869,"Ġnational":3870,"pril":3871,"Ġtown":3872,"otic":3873,"Ã³n":3874,"Ġnote":3875,"pen":3876,"Ġbehavior":3877,"Ġdriv":3878,"joy":3879,"ĠDNA":3880,"Ġjudgment":3881,"Ġdirection":3882,"Ġspeed":3883,"TH":3884,"EL":3885,"Ġimages":3886,"Ġvan":3887,"Ġexpress":3888,"Ġ(\\[":3889,"gor":3890,"ĊĠĠĠĠĠĠ":3891,"Ġshare":3892,"osph":3893,"Ġsqu":3894,"Ġlos":3895,"Ġimpl":3896,"met":3897,"ĠWhile":3898,"inated":3899,"Value":3900,"anch":3901,"Ġnumbers":3902,"ĠLa":3903,"Ġoffice":3904,"Ġindependent":3905,"Ġstatement":3906,"Ġonline":3907,"Ġdifferences":3908,"Ġopin":3909,"Ġtou":3910,"acement":3911,"($":3912,"ĠST":3913,"Ġclaims":3914,"ãģ®":3915,"ĠPresident":3916,"ĠMarch":3917,"augh":3918,"Ġ[*":3919,"urg":3920,"Ġcommand":3921,"Ġstage":3922,"Ġ60":3923,"Ġdro":3924,"aries":3925,"ĠCounty":3926,"Ġarticle":3927,"âĢĥ":3928,"isms":3929,"ĠSince":3930,"Ġaccur":3931,"osure":3932,"Ġmessage":3933,"Ġtakes":3934,"mega":3935,"unk":3936,"Ġactive":3937,"Ġcand":3938,"oul":3939,"vey":3940,"Ġunit":3941,"Ġhttp":3942,"term":3943,"Ġpractice":3944,"Ġcompet":3945,"Ġengine":3946,"Ġvict":3947,"ental":3948,"^[@":3949,"Ïģ":3950,"94":3951,"ĠNow":3952,"Î¼":3953,"top":3954,"hest":3955,"Ġgames":3956,"Ġoffer":3957,"Ġaltern":3958,"Ġband":3959,"Ġperfect":3960,"Ġregular":3961,"ham":3962,"Ġpretty":3963,"Ġetc":3964,"path":3965,"ĠAmerica":3966,"Ġcorresponding":3967,"Ġdynam":3968,"Ġroad":3969,"ĠHar":3970,"ĠFirst":3971,"ĠÃ©":3972,"ĠArt":3973,"ĠChar":3974,"Ġled":3975,"ĠJune":3976,"BC":3977,"Or":3978,"Ġsaying":3979,"Ġbrought":3980,"eah":3981,"Ġspeak":3982,"length":3983,"Ġreach":3984,"ming":3985,"Ġsecurity":3986,"Ġconstruct":3987,"ĠĊĠĠĠĠĠĠĠĠĠĠĠĠĠĠĠ":3988,"Ġappropri":3989,"cell":3990,"atives":3991,"Ġens":3992,"ĠHouse":3993,"Ed":3994,"Ġfeed":3995,"Ġbrain":3996,"deed":3997,"Ġrot":3998,"undred":3999,"ille":4000,"erve":4001,"lation":4002,"ĠSept":4003,"bon":4004,"Ġpresident":4005,"cast":4006,"ĠVal":4007,")=":4008,"ran":4009,"atform":4010,"Oh":4011,"Ġtele":4012,"Le":4013,"Ġnegative":4014,"Ġprotect":4015,"}}$":4016,"za":4017,"Ġapproxim":4018,"Ġdouble":4019,"Ġ2016":4020,"Ġball":4021,"inate":4022,"pret":4023,"arning":4024,"));":4025,"Ġwriting":4026,"pan":4027,"Ġfine":4028,"ĠId":4029,"supp":4030,"ĠBar":4031,"omen":4032,"Ġcontinue":4033,"Ġord":4034,"UN":4035,"Ġdensity":4036,"cho":4037,"ethyl":4038,"One":4039,"Ġantib":4040,"ournal":4041,"Ġobtain":4042,"Do":4043,"attle":4044,"ĠJapan":4045,"orph":4046,"Ġcam":4047,"Ġ2012":4048,"ĠGl":4049,"aling":4050,"vention":4051,"Ġult":4052,"Ġcenter":4053,"Ġstreng":4054,"ĠÃł":4055,"ĠHer":4056,"Ġ2014":4057,"Ġtitle":4058,"SC":4059,"Ġtradition":4060,"urb":4061,"from":4062,"call":4063,"pat":4064,"Ġlarger":4065,"ibrary":4066,"itter":4067,"Ġhon":4068,"ayer":4069,"Ġ2013":4070,"Ġstress":4071,"ufact":4072,"Ġenh":4073,"Ġclean":4074,"Ġarr":4075,"ociety":4076,"uge":4077,"Ġmeasured":4078,"Ġproposed":4079,"ĠCir":4080,"Ġfinanc":4081,"uild":4082,"eful":4083,"Ġrule":4084,"ously":4085,"Ġways":4086,"Ġhear":4087,"max":4088,"yond":4089,"Ġserious":4090,"sing":4091,"estern":4092,"Ġdevices":4093,"Ġpurpose":4094,"ĠAP":4095,"Ġgrant":4096,"rench":4097,"gorith":4098,"Ġhydro":4099,"Ġrecently":4100,"Ġrelative":4101,"Ġ2015":4102,"Ġpoor":4103,"efore":4104,"Ġfre":4105,"enty":4106,"Ġter":4107,"ĠIS":4108,"ĠPhys":4109,"Ġsituation":4110,"ui":4111,"Ġbackground":4112,"eline":4113,"Ġattention":4114,",'":4115,"###":4116,"ĊĠĠĠĠĠĠĠĠĠĠĠĠĠĠĠĠĠĠĠĠĠĠĠ":4117,"Mod":4118,"ocks":4119,"Ġhighly":4120,"la":4121,"ports":4122,"Now":4123,"aign":4124,"Ġtreated":4125,"irect":4126,"ĠAlthough":4127,"Ġeveryone":4128,"Ġmorning":4129,"ML":4130,"Ġliter":4131,"ÏĢ":4132,"ĠChina":4133,"Ġallowed":4134,"ĠSu":4135,"Ġassert":4136,"ervice":4137,"Suppose":4138,"Ñĭ":4139,"Ġrates":4140,"Ġvisit":4141,"psi":4142,"ĠOR":4143,"ĠSun":4144,"Ġpurch":4145,"97":4146,"version":4147,"ĠâĪĴ":4148,"Ġinform":4149,"band":4150,"Omega":4151,"Ġargument":4152,"ĠSystem":4153,"Ġglobal":4154,"spec":4155,"Ġdesigned":4156,"Ġwrote":4157,"non":4158,"GF":4159,"ĠApril":4160,"ĠJuly":4161,"Ġil":4162,"ĠSer":4163,"Ġoil":4164,"ellant":4165,"change":4166,"ÑĮ":4167,"aily":4168,"Ġacqu":4169,"Ġri":4170,"ico":4171,"fn":4172,"mar":4173,"Ġsuit":4174,"Ġstar":4175,"Ġresid":4176,"Ġcharge":4177,"Ġprofess":4178,"Ġdistance":4179,"omy":4180,"Ð²":4181,"Ġintern":4182,"98":4183,"Ġisol":4184,"ulate":4185,"Ġphen":4186,"ĠÑģ":4187,"reme":4188,"Ġbeaut":4189,"Ġcapac":4190,"bi":4191,"Ġrow":4192,"Ġfa":4193,"96":4194,"Ġproduced":4195,"Ġprop":4196,"ondon":4197,"ĠMon":4198,"Ġbirth":4199,"coming":4200,"}=":4201,"Ġda":4202,"Ġmount":4203,"iled":4204,"\\].":4205,"itness":4206,"Ġsufficient":4207,"hors":4208,"Ġsold":4209,"Ġusers":4210,"lo":4211,"ĠGeneral":4212,"iated":4213,"Ġgraph":4214,"Ġuseful":4215,"Cal":4216,"izes":4217,"Gamma":4218,"Par":4219,"Ġarch":4220,"ĠAugust":4221,"mpt":4222,"oted":4223,"00000000":4224,"Ġinstance":4225,"Ġstatic":4226,"Ġfixed":4227,"Ġhar":4228,"Ġmag":4229,"Ġestablished":4230,"gy":4231,"acing":4232,"ĠSw":4233,"Ġselected":4234,"EX":4235,"was":4236,"pid":4237,"Ġ2017":4238,"Object":4239,"Ġfailed":4240,"Ġparts":4241,")$,":4242,"Ġgives":4243,"cember":4244,"ĠJanuary":4245,"Ġdegree":4246,"ership":4247,"Ġheat":4248,"map":4249,"obile":4250,"){#":4251,"Ġoperation":4252,"ĠWest":4253,"čĊĠ":4254,"New":4255,"Ġsomet":4256,"epsilon":4257,"Ġmid":4258,"iring":4259,"Ġproceed":4260,"oring":4261,"Ġenjoy":4262,"Äĥ":4263,"Ġmyself":4264,"Ġ2010":4265,"ĠJud":4266,"Ġcaused":4267,"Ġbuilt":4268,"Ġidentify":4269,"Ġdivided":4270,"Ġbal":4271,"Ġdeb":4272,"Ġcentral":4273,"ĠAp":4274,"psilon":4275,"Ġdetails":4276,"Ġsecret":4277,"CA":4278,"ĠDem":4279,"Ġwonder":4280,"Ġleading":4281,"Ġdefault":4282,"Ġmer":4283,"abase":4284,"rightarrow":4285,"Ġtravel":4286,"Ġhundred":4287,"OW":4288,"inct":4289,"Ġindividuals":4290,"Ġimm":4291,"Ġfrequency":4292,"Ġcomponents":4293,"Ġsurpr":4294,"gu":4295,"Ġexperien":4296,"Ġ[**":4297,"Ġannoun":4298,"ovember":4299,"Ġtechnology":4300,"entially":4301,"known":4302,"js":4303,"ancy":4304,"Ġworked":4305,"Ġstim":4306,"Ġderivative":4307,"Ġbank":4308,"Ġscale":4309,"Text":4310,"Ġratio":4311,"Ġeight":4312,"Ġmatrix":4313,"Sc":4314,"ees":4315,"Ġvoice":4316,"argin":4317,"Ġlegal":4318,"Ġearlier":4319,"Ġthreat":4320,"Ġmanagement":4321,"Ġproteins":4322,"ĠFrom":4323,"Ġsubstant":4324,"Ġchoice":4325,"Ġlocation":4326,"Ġlat":4327,"ener":4328,"Ġpen":4329,"Ġ2011":4330,"ĠĠĠĠĠĠĠĠĠĠĠĠĠĠĠĠĠĠĠ":4331,"vare":4332,"Ġprime":4333,"Ġcompletely":4334,"zed":4335,"ube":4336,"CE":4337,"ãĢĤ":4338,"ocation":4339,"Ġfindings":4340,"Ġcountries":4341,"Ġfair":4342,"Ġagreement":4343,"unction":4344,"exp":4345,"lock":4346,"athe":4347,"SP":4348,"king":4349,"Ġhit":4350,"void":4351,"Ġeasily":4352,"ida":4353,"ĠĠĠĠĠĠĠĠĠĠĠĠĠĠĠĠĠ":4354,"/>":4355,"Ġlas":4356,"Ġclust":4357,"ibly":4358,"Ġreading":4359,"orem":4360,"wide":4361,"iency":4362,"Ġswe":4363,"Ġnotice":4364,"Ġfiles":4365,"ocol":4366,"Ġpsych":4367,"Ġdog":4368,"fort":4369,"Ġ----------------":4370,"Ġhyper":4371,"Yes":4372,"Ġsites":4373,"Ġprice":4374,"ĠKing":4375,"ĠMich":4376,"ford":4377,"ights":4378,"Ġneigh":4379,"Ġcomputer":4380,"ĠEnglish":4381,"Ġweb":4382,"Ġcomment":4383,"ĠOb":4384,"public":4385,"Ġaim":4386,"Ġsaf":4387,"Ġcurrently":4388,"Ġchanged":4389,"ĠTH":4390,"semb":4391,"Ġones":4392,"Ġmoved":4393,"zz":4394,"ĠSeptember":4395,"Ġ\\<":4396,"group":4397,"Ġfederal":4398,"Ġmanufact":4399,"operator":4400,"plit":4401,"Ġtowards":4402,"urt":4403,"Ġemerg":4404,"ĠÐ²":4405,"Ġtissue":4406,"Ġworth":4407,"ĠRed":4408,"aur":4409,"ĠDistrict":4410,"Ġcompanies":4411,"_.":4412,"elle":4413,"ĠFeb":4414,"Ġcook":4415,"ĠÐ½":4416,"Ġrequires":4417,"ares":4418,"cap":4419,"Ġwebsite":4420,"orage":4421,"ffer":4422,"Ġdecided":4423,"Ġqual":4424,"rate":4425,"Ġcontains":4426,"Ġthous":4427,"Ġarm":4428,"itions":4429,"Ġrecept":4430,"Ġfailure":4431,"ouble":4432,"Ñĩ":4433,"Ġsche":4434,"ĠOctober":4435,"Ġmode":4436,"Ġreleased":4437,"Ġimag":4438,"Ġlocated":4439,"oding":4440,"Ġemb":4441,"Ġplant":4442,"Ġcomponent":4443,"Ġdrive":4444,"Ġformed":4445,"ris":4446,"BS":4447,"Ġboard":4448,"Ġunique":4449,"ifically":4450,"Ġlooks":4451,"Ġnames":4452,"Ġseemed":4453,"Ġremember":4454,"Ġbeyond":4455,"ĠInt":4456,"Ġcarry":4457,"Ġnovel":4458,"room":4459,"unn":4460,"cil":4461,"((":4462,"Ġextra":4463,"Ġculture":4464,"ÙĦ":4465,"Ġconcern":4466,"Ġexpressed":4467,"Ġinn":4468,"Ġmulti":4469,"ĠStud":4470,"Ġconcept":4471,"Ġpor":4472,"Ġwife":4473,"Des":4474,"Ġauthors":4475,"init":4476,"\\'":4477,"ĠTrans":4478,"Ġphone":4479,"bb":4480,"Ġallows":4481,"Ġcool":4482,"------":4483,"older":4484,"ĠDepartment":4485,"opl":4486,"Ġbuy":4487,"TT":4488,"Ġindustry":4489,"link":4490,"Ġcircum":4491,"Ġdescript":4492,"Ġmeaning":4493,"Ġplease":4494,"Well":4495,"Ġsong":4496,"Ġcontrast":4497,"Ġoption":4498,"iÃ³n":4499,"Ġtumor":4500,"Ġequal":4501,"irmed":4502,"File":4503,"Ġexerc":4504,"active":4505,"Ġcontaining":4506,"From":4507,"Ġprefer":4508,"pace":4509,"Ġslight":4510,"iate":4511,"Ġcommit":4512,"wards":4513,"Ġsupported":4514,"Ġtrust":4515,"Ġclearly":4516,"varepsilon":4517,"Ġnumer":4518,"othes":4519,"Ġtim":4520,"ULL":4521,"under":4522,"uted":4523,"^+":4524,"Of":4525,"dim":4526,"92":4527,"ka":4528,"Set":4529,"tee":4530,"Ġroll":4531,"vis":4532,"varphi":4533,"Ġsometimes":4534,"user":4535,"Sec":4536,"uns":4537,"Ġdiscl":4538,"Ġquickly":4539,"asm":4540,"Ġnor":4541,"Ġcampaign":4542,"Ġadvant":4543,"Ġplayed":4544,"osite":4545,"MP":4546,"Ġappeal":4547,"odies":4548,"aught":4549,"iful":4550,"After":4551,"Ġcyt":4552,"Ġexactly":4553,"*.":4554,"quest":4555,"Ġremains":4556,"ĠMod":4557,"Ġfinding":4558,"Ġgenerated":4559,"Ġ31":4560,"ĠCons":4561,"Ġcouple":4562,"ĠDecember":4563,"Ġgoes":4564,"Ġ32":4565,"ĠRec":4566,"Ġappropriate":4567,"perty":4568,"Ġcouldn":4569,"Ġinterview":4570,"untu":4571,"overn":4572,"Ġadjust":4573,"SA":4574,"Ġsmaller":4575,"================================":4576,"Ġemail":4577,"irt":4578,"Ġclosed":4579,"Ġarriv":4580,"Ġoverall":4581,"aker":4582,"Ġhighest":4583,"rier":4584,")-":4585,"Ġactual":4586,"Ġax":4587,"93":4588,"ĠJe":4589,"Ġhappened":4590,"Ġeffic":4591,"ĠAfric":4592,"ara":4593,"ĠNovember":4594,"ĠDet":4595,"../../":4596,"iforn":4597,"Ġsleep":4598,"encies":4599,"Ġconnection":4600,"bum":4601,"Fr":4602,"ĠString":4603,"Ġreasons":4604,"Ġrelig":4605,"hand":4606,"which":4607,"Ġoptions":4608,"ato":4609,"Def":4610,"Ġcandid":4611,"rad":4612,"\\,":4613,"Ġtransport":4614,"Ġimpos":4615,"Ġwide":4616,"Ġcritical":4617,"Ġappears":4618,"irit":4619,"*]{}":4620,"Ġrelevant":4621,"iques":4622,"EC":4623,"anged":4624,"Ġupp":4625,"urance":4626,"kay":4627,"Ġstru":4628,"ais":4629,"Ġvs":4630,"Ġpopular":4631,"overy":4632,"chi":4633,"ample":4634,"ĠLicense":4635,"rum":4636,"FL":4637,"Ġelectro":4638,"UL":4639,"vec":4640,"ĠĠĠĠĠĠĠĠĠĠĠĠĠĠĠĠĠĠ":4641,"Ġvolume":4642,"Ġshowing":4643,"Ġmedium":4644,"Ġapply":4645,"Ġuses":4646,"Ġalgorith":4647,"round":4648,"Ġparents":4649,"orge":4650,"ĠPR":4651,"ĠÎ¼":4652,"lick":4653,"Ġrestrict":4654,"Ġstore":4655,"lib":4656,"static":4657,"Ġstation":4658,"ĠChe":4659,"rick":4660,"index":4661,"ashington":4662,"Ġinterpret":4663,"Ġnode":4664,"Ġpair":4665,"Ġmilitary":4666,"Ġfeet":4667,"iers":4668,"icip":4669,"!!":4670,"ĠSen":4671,"section":4672,"Ġhospital":4673,"Ġparties":4674,"Ġfigure":4675,"Be":4676,"Ġexperiments":4677,"Ġthinking":4678,".[":4679,"Ġmur":4680,"ĠOf":4681,"Ġconnect":4682,"Ġunderstanding":4683,"cluded":4684,"ĠRepublic":4685,"Ġfat":4686,"}_{\\":4687,"rael":4688,"Ġmal":4689,"ano":4690,"ĠLondon":4691,"vision":4692,"Ġ2008":4693,"ael":4694,"board":4695,"mark":4696,"002":4697,".$$":4698,"ruary":4699,"Ġformation":4700,"enge":4701,"Ġready":4702,"iday":4703,"Ġsec":4704,"Ġhair":4705,"RT":4706,"Ġfear":4707,"Ġthrow":4708,"Ġproduce":4709,"Ġactivities":4710,"\\<":4711,"well":4712,"Ġlearning":4713,"ĠHol":4714,"Add":4715,"};":4716,"Ġconcentration":4717,"Ġfinally":4718,"istry":4719,"Ġinteresting":4720,"Ġdamage":4721,"Ġfiled":4722,"Ġ/>":4723,"ĠSchool":4724,"Supp":4725,"Ġsubsequ":4726,"ifornia":4727,"Ġeducation":4728,"ĠCong":4729,"Ġvirt":4730,"ÏĤ":4731,"Ġpul":4732,"Ġfeature":4733,"Ġgoal":4734,"Ġproof":4735,"======":4736,"91":4737,"aste":4738,"OV":4739,"ky":4740,"Ġopinion":4741,"ĠMark":4742,"Ġimmediately":4743,"ãĢģ":4744,"Ġchalleng":4745,"Ġ2009":4746,"Sim":4747,"Ġstaff":4748,"Ġfully":4749,"cos":4750,"Ġmaterials":4751,"Ġyes":4752,"Ġobvious":4753,"Error":4754,"Ġstrength":4755,"Ġsetting":4756,"Ġgreen":4757,"Ġplayer":4758,"ersion":4759,"rep":4760,"Ġreceive":4761,"Ġparameter":4762,"Ġ2018":4763,"Ġmiddle":4764,"Ġstated":4765,"Ġthroughout":4766,"Time":4767,"Ġuint":4768,"Ġserver":4769,"Ġ__":4770,"ptr":4771,"force":4772,"ĠHealth":4773,"Ġhab":4774,"stances":4775,"Ġvariable":4776,"Man":4777,"Ġprogress":4778,"alle":4779,"ĠBritish":4780,"Ġgone":4781,"Ġmit":4782,"PP":4783,"fo":4784,"otes":4785,"adem":4786,"py":4787,"ymbol":4788,"Ġ35":4789,"stance":4790,"base":4791,"ĠAccording":4792,"Ġresulting":4793,"Ġreduce":4794,"Ġblue":4795,"ĠAustral":4796,"}^{\\":4797,")^":4798,"orney":4799,"Ġconnected":4800,"Ġrules":4801,"Ġmeeting":4802,"bin":4803,"Ġsto":4804,"Int":4805,"Ġskin":4806,"Ġaspect":4807,"ĠWilli":4808,"Ġregions":4809,"Ġinternal":4810,"Ġexhib":4811,"Key":4812,"Ġcosts":4813,"Ġ($":4814,"Ġpassed":4815,"pol":4816,"ĠBro":4817,"operatorname":4818,"Ġcontinued":4819,"Ġcollect":4820,"Ġconsequ":4821,"Ġcarried":4822,"ĠEm":4823,"style":4824,"TER":4825,"Ġcounter":4826,"Ġnearly":4827,"Ġonto":4828,"Ġdemand":4829,"Ġfinancial":4830,"Ġinfluence":4831,"Ġyourself":4832,"item":4833,"Ġtask":4834,"iling":4835,"003":4836,"Ġchance":4837,"Ġmess":4838,"langle":4839,"*-":4840,"asc":4841,"atever":4842,"Ġplaced":4843,")**":4844,"Ġabsol":4845,"Ġrob":4846,"Ġcollection":4847,"Ġgets":4848,"Ġcit":4849,"Ġlives":4850,"Ġdefine":4851,"Ġhearing":4852,"ĠHigh":4853,"msg":4854,"Ġletter":4855,"Ġseparate":4856,"Ġlinks":4857,"Ġindicated":4858,"ded":4859,"overline":4860,"oses":4861,"Ġbrief":4862,"Ġbinding":4863,"Ġmovement":4864,"ĠTw":4865,"Ġscore":4866,"Ġmaximum":4867,"Ġprocesses":4868,"Ġwidth":4869,"Ġlinear":4870,"RI":4871,"Ġliqu":4872,"oat":4873,"Ġletters":4874,"DA":4875,"ĠMus":4876,"Ġnoted":4877,".\\":4878,"oto":4879,"Ġplaying":4880,"NS":4881,"Ġreaction":4882,"arest":4883,"Ġmoving":4884,"Ġreflect":4885,"čĊč":4886,"ĠAND":4887,"Ġ\"\"":4888,"Ġsolid":4889,"Ġtour":4890,"Ġapplications":4891,"omb":4892,"Ġreturned":4893,"works":4894,"color":4895,"Ġheight":4896,"PA":4897,"Ġign":4898,"Ġenter":4899,"ooth":4900,"Ġvariables":4901,"pa":4902,"itro":4903,"pling":4904,"Ġnamed":4905,"Ġextract":4906,"font":4907,"Ġfields":4908,"pective":4909,"Ġmedic":4910,"ĠPark":4911,"asis":4912,"ĠAT":4913,"Ġbecomes":4914,"Ġyield":4915,"Ġtherapy":4916,"related":4917,"Ġmort":4918,"omas":4919,"ĠMor":4920,"ĠBecause":4921,"free":4922,"Ġreached":4923,"roy":4924,"Ġsi":4925,"ĠĊĠ":4926,"Ġbrother":4927,"asion":4928,"Ġperhaps":4929,"^{(":4930,"Ġgiving":4931,"Ġkept":4932,"}}(":4933,"Ġgrand":4934,"Ġsympt":4935,"asp":4936,"cules":4937,"inger":4938,"References":4939,"Ġrelatively":4940,"Here":4941,"Ġfit":4942,"ĊĠĠĠĠĠĠĠĠĠĠĠĠĠ":4943,"bra":4944,"Class":4945,"Ġforms":4946,"hold":4947,"Ġrevealed":4948,"Ġstraight":4949,"ĠEven":4950,"atur":4951,"ĠØ":4952,"Ġorg":4953,"Ġwild":4954,"Ġitems":4955,"Ġvehicle":4956,"Ġandroid":4957,"iform":4958,"Ġexists":4959,"Ġdied":4960,"stream":4961,"Ġhour":4962,"ĠAng":4963,"ATE":4964,"Why":4965,"Ġtool":4966,"Ġinstit":4967,"Ġscient":4968,"grad":4969,"Ġvector":4970,"Ġsources":4971,"ĠSub":4972,"Ġinjury":4973,"DR":4974,"othe":4975,"berg":4976,"Ġtransform":4977,"Ġmodern":4978,"Ġutil":4979,"\"},":4980,"Ġstarting":4981,"Ġjury":4982,"OO":4983,"omic":4984,"Ġhous":4985,"amin":4986,"df":4987,"material":4988,"rant":4989,"Î·":4990,"Ġfix":4991,"erved":4992,"utive":4993,"Ġintr":4994,"func":4995,"oman":4996,"Ġsafe":4997,"}}_":4998,"Ġregarding":4999,"ĠCalifornia":5000,"ĠSan":5001,"Ġbottom":5002,"cles":5003,"Ġboy":5004,"Ġsend":5005,"Ġconvention":5006,"atin":5007,"Ġotherwise":5008,"otion":5009,"Ġreports":5010,"['":5011,"Ġparticipants":5012,"Ġtalking":5013,"Ġinteraction":5014,"Ġstuff":5015,"Ġsteps":5016,"Ġcombination":5017,"Ġmajority":5018,"ella":5019,"Ãĥ":5020,"().":5021,"Ġedge":5022,"len":5023,"Ġthick":5024,"Ġcontribut":5025,"Ġdomain":5026,")).":5027,"Ġpow":5028,"ÑģÑĤ":5029,"Ġ]":5030,"icit":5031,"erate":5032,"See":5033,"ech":5034,"ĠDon":5035,"ayout":5036,"Ab":5037,"cons":5038,"ĠWashington":5039,"Ġ^":5040,"Ġplus":5041,"Ġbasic":5042,"case":5043,"Ġmaybe":5044,"rend":5045,"Ġchannel":5046,"Ġcircuit":5047,"Ġincor":5048,"urity":5049,"Ġresistance":5050,"Ġplaces":5051,"Ġeconomic":5052,"Ġpicked":5053,"long":5054,"ĠGet":5055,"Ġzero":5056,"grams":5057,"enses":5058,"Ġuns":5059,"Ġ~":5060,"abled":5061,">>":5062,"Comp":5063,"Ġinfection":5064,"Ġcounsel":5065,"Ġbeginning":5066,"Ã©s":5067,"place":5068,"////////":5069,"Me":5070,"fil":5071,"Ġanimals":5072,"Ġweak":5073,"ĠMoreover":5074,"PC":5075,"Ġconcentr":5076,"Ġcivil":5077,"ĠFebruary":5078,"Ġ(\\":5079,"Ġwouldn":5080,"Ġtruth":5081,"Ġcolumn":5082,"Ġunits":5083,"Ġmale":5084,"Ġpaid":5085,"True":5086,"Test":5087,"geq":5088,"Ġ90":5089,"can":5090,"Ġseven":5091,"Ġ(**":5092,"Ġ\\,":5093,"Ġ80":5094,"oken":5095,"Ġbooks":5096,"Ġjur":5097,"Ġestablish":5098,"Ġsun":5099,"ady":5100,"Ġshot":5101,"iny":5102,"Ġeth":5103,"ĠUSA":5104,"Ġopportunity":5105,"Ġhappen":5106,"itors":5107,"Ġportion":5108,"Ġum":5109,"ĠFrench":5110,"Ġobjects":5111,"sis":5112,"Ġachieve":5113,"ename":5114,"Ïħ":5115,"Ġcalculated":5116,"ĠDavid":5117,"onic":5118,"ĠĠĠĠĠĠĠĠĠĠĠĠĠĠĠĠĠĠĠĠ":5119,"Ġmechanism":5120,"uses":5121,"Ġphosph":5122,"Ġsuggested":5123,"ÐµÐ½":5124,"Ġanalys":5125,"ĠData":5126,"Ð´":5127,"Ġeye":5128,"ĠOther":5129,"Ġsynthe":5130,"Ġmanner":5131,"ny":5132,"Ġlib":5133,":\"":5134,"');":5135,"çļ":5136,"Ġje":5137,"Ġconstruction":5138,"Ġreduction":5139,"tem":5140,"ĠIsrael":5141,"ĠĠĠĠĠĠĠĠĠĠĠĠĠĠĠĠĠĠĠĠĠ":5142,"Ġmachine":5143,"######":5144,"Ġplatform":5145,"Ġmetal":5146,"Ġwave":5147,"Ġequation":5148,"ãģĦ":5149,"Ġbul":5150,"Ġhistor":5151,"agon":5152,"iance":5153,"ocket":5154,"stitute":5155,"gery":5156,"Ġkill":5157,"Ð¼":5158,"Ġcore":5159,"Ġprocessing":5160,"orry":5161,"Ġfunctional":5162,"Ġapparent":5163,"CS":5164,"Ġsusp":5165,"di":5166,"eria":5167,"Ġupper":5168,"ĠPaul":5169,"Ġwa":5170,"je":5171,"otype":5172,"Ġtesting":5173,"Ġremoved":5174,"Ġcomplic":5175,"Big":5176,"arter":5177,"[^":5178,"Ġtouch":5179,"ria":5180,"Ġdemonstrated":5181,"Ġhop":5182,"Ġconsistent":5183,"ÃĲ":5184,"inese":5185,"Ġlab":5186,"Ġdetected":5187,"``":5188,"ingu":5189,"ĠAc":5190,"Ġvill":5191,"Ġagree":5192,"Ġspread":5193,"Ġconducted":5194,"ĠCenter":5195,"Ġmetab":5196,"Ġprocedure":5197,"ls":5198,"ĠDis":5199,"Ġtree":5200,"Ġlabel":5201,"Ġ->":5202,"Ġneut":5203,"Ġchoose":5204,"Ġwhom":5205,"ĠAM":5206,"gar":5207,"nes":5208,"Ġhappy":5209,"Ġmagnetic":5210,"Ġinternational":5211,"RA":5212,"Ġ2007":5213,"Ġtests":5214,"Ġequival":5215,"]:":5216,"ĠWhite":5217,"ĠAlso":5218,"ocyt":5219,"Ġnorm":5220,"Ġadapt":5221,"Ġindicate":5222,"çļĦ":5223,"ĠPal":5224,"Ġstatist":5225,"zym":5226,"Ct":5227,"Ġroot":5228,"Ġactions":5229,"Form":5230,"Ġrapid":5231,"Ġswitch":5232,"Ġvariety":5233,"IA":5234,"Ġharm":5235,"ĠSection":5236,"Ġsets":5237,"omin":5238,"Ġpeak":5239,"aly":5240,"Ġlif":5241,"aughter":5242,"Ġcoord":5243,"xy":5244,"lam":5245,"Ġcast":5246,"Ġcareer":5247,"aching":5248,"level":5249,"Ġsafety":5250,"Ġglass":5251,"Ġfloor":5252,"ĠTex":5253,"dot":5254,"Ġtend":5255,"Ġunc":5256,"ĠPublic":5257,"xx":5258,"Ġwid":5259,"Ġspent":5260,"Ġarrest":5261,"\"><":5262,"ipp":5263,"Ġpetition":5264,"dr":5265,"Ġclient":5266,"Ġtal":5267,"ĠTable":5268,"ĠAut":5269,"Ġreasonable":5270,"sembly":5271,"ĠIL":5272,"Ġnearest":5273,"Ġprove":5274,"Ġproviding":5275,"frak":5276,"Over":5277,"abil":5278,"Ġshape":5279,"zen":5280,"Ġadopt":5281,"ĠEuropean":5282,"ctors":5283,"Ġadministration":5284,"Ġmembr":5285,"ME":5286,"Ġstructures":5287,"\\],":5288,"Ġ<<":5289,"rey":5290,"Ġnone":5291,"%,":5292,"':":5293,"Ġnil":5294,"ci":5295,"tes":5296,"Ġlabor":5297,"Ġresources":5298,"Ġcomparison":5299,"using":5300,"Ġsen":5301,"Ġvisual":5302,"CP":5303,"Ġcert":5304,"Ġ2000":5305,"wood":5306,"jo":5307,"Ġshoot":5308,"Ġblog":5309,"Ġdaily":5310,"Ġpiece":5311,"rely":5312,"Ġmac":5313,"cher":5314,"ĠFigure":5315,"onent":5316,"Ġcharacteristics":5317,"Ġextrem":5318,"Ġsave":5319,"Ġnice":5320,"Ġlaws":5321,"HT":5322,"Ġ95":5323,"Ġremov":5324,"ellig":5325,"Ġgold":5326,"Ġ45":5327,"Exception":5328,"Ġcentury":5329,"ĠJack":5330,"Ġshift":5331,"Ġcompr":5332,"raint":5333,"olved":5334,"ustr":5335,"inner":5336,"Ġkilled":5337,"Ġplate":5338,"oting":5339,"jection":5340,"Ġfemale":5341,"pected":5342,"Ġ37":5343,"Î²":5344,"Ġcapital":5345,"ilies":5346,"Ġ);":5347,"Ġcapacity":5348,"ails":5349,"Ġfresh":5350,"aud":5351,"ensions":5352,"*(":5353,"ingly":5354,"ĠNet":5355,"ensure":5356,"otal":5357,"ĠArm":5358,"ding":5359,"Ġscen":5360,"ship":5361,"ĠDemocr":5362,"ĠPM":5363,"Ġbab":5364,"po":5365,"Ġexisting":5366,"Ġunf":5367,"Ġpanel":5368,"what":5369,"atically":5370,"Ġbenefits":5371,"info":5372,"abs":5373,"ĠInst":5374,"FA":5375,"pir":5376,"stitution":5377,"oute":5378,"Ġwat":5379,"Ġitem":5380,"ĠInter":5381,"Ġmist":5382,"Ġcru":5383,"Ġremove":5384,"Ġdut":5385,"500":5386,"Ġbeautiful":5387,"Ġsubstr":5388,"ini":5389,"wid":5390,"Ġmentioned":5391,"idden":5392,"rices":5393,"ĠIndian":5394,"config":5395,"Ġprem":5396,"ĠCommission":5397,"Ġalbum":5398,"arth":5399,"ĠYour":5400,"Ġ2006":5401,"lict":5402,"ĠLaw":5403,"Ġpicture":5404,"Ġreplacement":5405,"Ġdiss":5406,"uman":5407,"vest":5408,"ifying":5409,"Ġcold":5410,"]\\],":5411,"PD":5412,"Ġcontinuous":5413,"Ġensure":5414,"ĠID":5415,"ĠBlack":5416,"Ġpun":5417,"Ġappeared":5418,"Ġstudied":5419,"ensional":5420,"input":5421,"Ġhus":5422,"ifier":5423,"Ġdefinition":5424,"ĠIndia":5425,"TE":5426,"ĊĊĊĊ":5427,"how":5428,"Ġtypically":5429,"itz":5430,"Ġregul":5431,"Ġdanger":5432,"Ġcrim":5433,"apping":5434,"Ãª":5435,"Ġselection":5436,"Ġraised":5437,"Ġcop":5438,"Ġfacts":5439,"anned":5440,"State":5441,"ãģ«":5442,"Ġexposure":5443,"ĠAD":5444,"Ġdatabase":5445,"Ġwind":5446,"flow":5447,"rome":5448,"Ġburn":5449,"čĊĠĠĠĠĠĠĠ":5450,"Ġclub":5451,"Ġtrade":5452,"Path":5453,"[]":5454,"Ġampl":5455,"osen":5456,"Ġincreases":5457,"Ġsevere":5458,"Ġtherm":5459,"sey":5460,"ilos":5461,"ette":5462,"host":5463,"ĠSec":5464,"Ġassume":5465,"acters":5466,"Ġdiscussed":5467,"db":5468,"Ġfeeling":5469,"IB":5470,"='":5471,"Ġdoc":5472,"Item":5473,"Ġguess":5474,"ago":5475,"start":5476,"ESS":5477,"Ġprepared":5478,"Ġdetection":5479,"Ġsolutions":5480,"endant":5481,"Ġdrink":5482,"Ġopened":5483,"Ġmeant":5484,"Ġvictim":5485,"ĠFurthermore":5486,"ĠResearch":5487,"ĠJames":5488,"iced":5489,"Ġrace":5490,"ston":5491,"äº":5492,"ipe":5493,"Size":5494,"Ġmo":5495,"Don":5496,"Ġmill":5497,"Ġcup":5498,"conne":5499,"Ġtransition":5500,"ota":5501,"uced":5502,"ĠAssoci":5503,"Ġresponsible":5504,"Ã¦":5505,"Ġspin":5506,"indows":5507,"Ġlaug":5508,"Ġcommunication":5509,"Ġapproximately":5510,"Ġexplain":5511,"Ġded":5512,"ĠRober":5513,"ĠHam":5514,"Ġwitness":5515,"FT":5516,"icks":5517,"Ġimproved":5518,"orter":5519,"Ġpackage":5520,"005":5521,"Ġbud":5522,"004":5523,"rical":5524,"ruit":5525,"cor":5526,"UM":5527,"soft":5528,"ĠOh":5529,"Ġclick":5530,"Ġbond":5531,"Ġwood":5532,"Ġupd":5533,"Ġheavy":5534,"encing":5535,"igation":5536,"ensuremath":5537,"Ġ36":5538,"Ġlip":5539,"Ġstream":5540,"AND":5541,"Ġexplained":5542,"Ġdoubt":5543,"car":5544,"Ġsuccessful":5545,"},\\":5546,"Ġna":5547,"Ġ(\"":5548,"produ":5549,"ĠList":5550,"Ġradio":5551,"?'":5552,"osing":5553,"Ġoptim":5554,"Ġrout":5555,"Ġliquid":5556,"ĠGoogle":5557,"count":5558,"Ġrock":5559,"ÂłÂłÂłÂł":5560,"Ġmig":5561,"title":5562,"Ġbacter":5563,"ĠOff":5564,"istant":5565,"ban":5566,"Ġlock":5567,"Ġagent":5568,"Ġ70":5569,"Ġoperator":5570,"Ġoccup":5571,"circ":5572,"Ġalleged":5573,"ographic":5574,"mathfrak":5575,"ĠPC":5576,"ĠTV":5577,"Ġsell":5578,"php":5579,"han":5580,"Ġrecommend":5581,"/(-":5582,"agement":5583,"Ġpara":5584,"ĠSpec":5585,"Ä±":5586,"ldots":5587,"hal":5588,"ĠUK":5589,"Ġcommerc":5590,"Ġmeasures":5591,"java":5592,"ĠMost":5593,"appa":5594,"Ġdismiss":5595,"parent":5596,"Ġguy":5597,"Ġtransl":5598,"Ġprepar":5599,"ĠMac":5600,"Ġpark":5601,"Ġcertainly":5602,"Ġwants":5603,"Ġevolution":5604,"EE":5605,"Ġserved":5606,"Ġtechniques":5607,"anging":5608,"Ġintroduced":5609,"ĠRich":5610,"ĠÏĦ":5611,"asma":5612,"Ġsexual":5613,"lem":5614,"Äģ":5615,"';":5616,"ĠSy":5617,"cin":5618,"Ġforces":5619,"Bl":5620,"Sub":5621,"/(":5622,"ĠInternational":5623,"ALL":5624,"*)":5625,"ĠChinese":5626,"ario":5627,"ride":5628,"ĠGovern":5629,"imony":5630,"ĠJer":5631,"Ġlegis":5632,"ĠEv":5633,"Ġconvers":5634,"Ġelectric":5635,"........":5636,"Ġforeign":5637,"ĠĠĠĠĠĠĠĠĠĠĠĠĠĠĠĠĠĠĠĠĠĠĠ":5638,"space":5639,"ĠCH":5640,"tre":5641,"Ġleads":5642,"Ġexpand":5643,"ubuntu":5644,"\"/>":5645,"SH":5646,"Ġbenefit":5647,"ura":5648,"rian":5649,"ferent":5650,"False":5651,"Ġgun":5652,"bolds":5653,"ANT":5654,"Ġtools":5655,"you":5656,"Ġprograms":5657,"icial":5658,"Ġexperimental":5659,"Ġolder":5660,"Ġbelong":5661,"boldsymbol":5662,"Ġsurround":5663,"enced":5664,"Ġessential":5665,"nb":5666,"Ġinsert":5667,"ascular":5668,"itect":5669,"true":5670,"Ġinterface":5671,"Ġnation":5672,"Ġgrowing":5673,"Îº":5674,"Out":5675,"Ġcombined":5676,"ĠJew":5677,"Ġborder":5678,"going":5679,"ĠDan":5680,"Up":5681,"Ġdefense":5682,"ĠGerman":5683,"Ġborn":5684,"ĠPress":5685,"lication":5686,"ĠRE":5687,"ä»":5688,"Ġchallenge":5689,"rient":5690,"Ġ48":5691,"Ġmotor":5692,"image":5693,"LA":5694,"Ġideas":5695,"Ġvent":5696,"Ġhuge":5697,"Ġstrategy":5698,"Ġcomments":5699,"Ġprofessional":5700,"Read":5701,"etry":5702,"Ġsubjects":5703,"ĠAtt":5704,"CON":5705,"Ġkin":5706,"[\\":5707,"idem":5708,"vo":5709,"ĠRel":5710,"Ġfib":5711,"itivity":5712,"(),":5713,"({\\":5714,"Ġthank":5715,"Ġstorage":5716,"mail":5717,"ĠStreet":5718,"ĠFe":5719,"Ġaward":5720,"Ġneur":5721,"Ġmonitor":5722,"orrow":5723,"pers":5724,"Ġwhereas":5725,"Ġcollected":5726,"ĠPre":5727,"Ġwish":5728,"Ġupdate":5729,"urrent":5730,"ĠAdd":5731,"Ġunless":5732,"idel":5733,"PT":5734,"**)":5735,"ua":5736,"Ġstock":5737,"Ġdescription":5738,"ita":5739,"Ġspecifically":5740,"Ġactivation":5741,"raz":5742,"Ġsav":5743,"arant":5744,"Ġdespite":5745,"Ġoptical":5746,"Ġ\"[":5747,"Ġadvantage":5748,"kt":5749,"Ġserve":5750,"Ġkids":5751,"Ġprison":5752,"icity":5753,"chen":5754,"ART":5755,"open":5756,"ĠCongress":5757,"Ġcontrols":5758,"ĠTwo":5759,"Ġtested":5760,"Ġexercise":5761,"Lambda":5762,"Ġvert":5763,"Ġempt":5764,"ĠMiss":5765,"Ġsummer":5766,"ĠSam":5767,"Ġmg":5768,"ĠRNA":5769,"Ġkid":5770,"ulf":5771,".](":5772,"othing":5773,"Î»":5774,"Ġslightly":5775,"Ġdelay":5776,"ĠPost":5777,"Ġremaining":5778,"aa":5779,"Ġproport":5780,"Ġconfirmed":5781,"rd":5782,"Reg":5783,"otimes":5784,"Ġmolecular":5785,"Ġsurvival":5786,")/(-":5787,"Ð¾Ð²":5788,"ĠEast":5789,"lt":5790,"Ġchemical":5791,"ĠMart":5792,"Ġalternative":5793,"Ġpal":5794,"eds":5795,"Ġcat":5796,"Ġdistinct":5797,"isd":5798,"hi":5799,"Ġinduced":5800,"ĠNOT":5801,"Can":5802,"ipment":5803,"Ġfilter":5804,"Ġsch":5805,"ĠĠĠĠĠĠĠĠĠĠĠĠĠĠĠĠĠĠĠĠĠĠ":5806,"Ġvac":5807,"Ġcharacters":5808,"ows":5809,"ĠNULL":5810,"Ġfif":5811,"ĊĊĠĠĠĠĠ":5812,"ĠEach":5813,"Ġmissing":5814,"âĢ¢":5815,"Ġring":5816,"ĠCirc":5817,"Ġworkers":5818,"Ġagreed":5819,"ĠÐ¸":5820,"Ġmm":5821,"SI":5822,"Ġnut":5823,"Ġ2005":5824,"Ġplans":5825,"Ġvel":5826,"osc":5827,"ba":5828,"0001":5829,"ãĤĭ":5830,"Ġcomplaint":5831,"Ġcatch":5832,"Ġdrugs":5833,"ĠCON":5834,"isation":5835,"ĠNote":5836,"Ġinvestigation":5837,"kg":5838,"Ġcalls":5839,"Ġfootball":5840,"Ùħ":5841,"bm":5842,"uing":5843,"ÙĨ":5844,"Ġpros":5845,"ql":5846,"asure":5847,"Calculate":5848,"AV":5849,"iders":5850,"Ġtechnique":5851,"ĠEngland":5852,"Ġweap":5853,"Context":5854,"Ġentry":5855,"pass":5856,"Ġscience":5857,"onna":5858,"Ġrecords":5859,"Ġabsor":5860,"ĠUp":5861,"Ġassociation":5862,"Ġdigital":5863,"Ġoccurred":5864,"Ġanalyzed":5865,"Ġdenied":5866,"Ġsurgery":5867,"Ġfamilies":5868,"Ġoperations":5869,"Then":5870,"dden":5871,"ĠWil":5872,"Ġhealthy":5873,"Ġaffected":5874,"Ġholding":5875,"Ġmix":5876,"ĉĉĉĉ":5877,"Ġcycle":5878,"edom":5879,"Ġfirm":5880,"CM":5881,"Ġminor":5882,"Ġrul":5883,"Ġrelation":5884,"ĠSup":5885,"Ġencour":5886,"Ġcomposition":5887,"Ġwarm":5888,"ãģĹ":5889,"Exp":5890,"Ġanimal":5891,"zon":5892,"itis":5893,"riage":5894,"Ġtempor":5895,"ĠÎ±":5896,"Ġtraditional":5897,"Ġcardi":5898,"ĠGroup":5899,"pc":5900,"check":5901,"izations":5902,"coh":5903,"actor":5904,"Ġoffered":5905,"Ġofficer":5906,"Ġopening":5907,"Ġ34":5908,"elled":5909,"Ġprobability":5910,"Ġwhatever":5911,"kin":5912,"CO":5913,"arp":5914,"Ġsymptoms":5915,"Ġgal":5916,"Ġefficient":5917,"Ġfrag":5918,"Ġcorrelation":5919,"Ġ33":5920,"Ġinstr":5921,"itled":5922,"fected":5923,"Ġdrop":5924,"Ġminimum":5925,"Ġabsence":5926,".*":5927,"ignment":5928,"Ġchain":5929,"}}{":5930,"Ġalgorithm":5931,"istory":5932,"ĠTO":5933,"Ġsuggests":5934,"Ġchrom":5935,"Ġhusband":5936,"Ġdistributed":5937,"Ġuna":5938,"åı":5939,"DS":5940,"gs":5941,"Ġcorpor":5942,"ander":5943,"iat":5944,"Ġcir":5945,"Ġsociety":5946,"Event":5947,"Ġrecorded":5948,"Ġtrig":5949,"ĠFound":5950,"inity":5951,"antly":5952,"Ġdiscussion":5953,"Ġcomfort":5954,"resents":5955,"Ġrank":5956,"æľ":5957,"}-":5958,"Ġbone":5959,"Ġbiggest":5960,"Ġjudge":5961,"PO":5962,"Ġhol":5963,"Ġentered":5964,"house":5965,"Ġspirit":5966,"rich":5967,"ologies":5968,"Ġclasses":5969,"Ġherself":5970,"ya":5971,"Ġstudent":5972,"Ġconver":5973,"Ġ42":5974,"&\\":5975,"Ġgeneration":5976,"ĠMal":5977,"ĠĠĠĠĠĠĠĠĠĠĠĠĠĠĠĠĠĠĠĠĠĠĠĠĠĠĠĠĠĠĠĠĠĠĠĠĠĠĠĠĠĠĠĠĠĠĠĠĠĠĠĠĠĠĠĠ":5978,"Ġformat":5979,"Ġsudden":5980,"'.":5981,"allel":5982,"ki":5983,"ĠBoard":5984,"Ġhttps":5985,"Ġbreast":5986,"Ġcircumstances":5987,"GL":5988,"Ãł":5989,"det":5990,"BL":5991,"prime":5992,"Ġsymb":5993,"post":5994,"Ġcauses":5995,"Ġestimated":5996,"Ġsitu":5997,"ĠEvery":5998,"Ġscript":5999,"oz":6000,"Ġorganization":6001,"ĠTest":6002,"Ġfra":6003,"^âĪĴ":6004,"Ġbill":6005,"Ġeat":6006,"Ġfaith":6007,"Ġsummary":6008,"ymph":6009,"Ġderived":6010,"poses":6011,"Act":6012,"Ġrepeated":6013,"Ġhandle":6014,"sem":6015,"ĠKe":6016,".**":6017,"());":6018,"Ġincome":6019,"ĠBank":6020,"ĠSupp":6021,"Ġexternal":6022,"alysis":6023,"Ġbow":6024,"ÃĹ":6025,"UE":6026,"ĠBen":6027,"uffer":6028,"Ġefforts":6029,"Ġsmooth":6030,"thon":6031,"Ġintended":6032,"ione":6033,"Ġjoint":6034,"ĠAir":6035,"']":6036,"ĠCam":6037,"subset":6038,"Ġconventional":6039,"otyp":6040,"ĠPlaintiff":6041,"Ġvolt":6042,"ror":6043,"Ġnoise":6044,"ĠCa":6045,"Ġ((":6046,"ĠWhy":6047,"while":6048,"iable":6049,"Per":6050,"ĠSuper":6051,"Ġrise":6052,"Ġprotection":6053,"lands":6054,"Ġknows":6055,"gin":6056,"umin":6057,"Index":6058,"ĠOver":6059,"olar":6060,"Ġcryst":6061,"Ġresolution":6062,"Phi":6063,"ĊĊĠĠĠĠĠĠĠĠĠĠĠ":6064,"Our":6065,"Ġguys":6066,"Ġnuclear":6067,"Ġextent":6068,"content":6069,"Cs":6070,"ivo":6071,"Info":6072,"Ser":6073,"Ġcele":6074,"illa":6075,"ĠÅ":6076,"Ġdry":6077,"Some":6078,"izer":6079,"object":6080,"Ġagents":6081,"cknow":6082,"Ġenzym":6083,"ĠGeorge":6084,"\\|":6085,"ãģ¨":6086,"ĠWell":6087,"esis":6088,"sf":6089,"}}}":6090,"ushed":6091,"Ġbehavi":6092,"Ġrequirements":6093,"Ġshared":6094,"âĢ²":6095,":**":6096,"ĠÐ¾":6097,"ĠLou":6098,"ĠAny":6099,"ĠSuch":6100,"Ġstrugg":6101,"Sp":6102,"Ġchurch":6103,"ivery":6104,"Ġcovered":6105,"Ġleaving":6106,"Ġmobile":6107,"Ġinterested":6108,"irty":6109,"ĠTexas":6110,"cs":6111,"Ġstars":6112,"ĠGreen":6113,"Rec":6114,"ERS":6115,"ners":6116,"Ġkit":6117,"Ġdiagnosis":6118,"burg":6119,"Ġdaughter":6120,"à¥":6121,"Code":6122,"Ġrepresents":6123,"Ġstre":6124,"Ġpatterns":6125,"Ġresponses":6126,"ĠDi":6127,"greg":6128,"Ġoffers":6129,"Ġelection":6130,"ilit":6131,"eless":6132,"Ġdoll":6133,"isted":6134,"Ġdecreased":6135,"Ġannounced":6136,"Ġimplic":6137,"Pr":6138,"Ġ///":6139,"Ġreb":6140,"apers":6141,"ĠCanada":6142,"acebook":6143,"Ġnorth":6144,"yr":6145,"van":6146,"Ġearth":6147,"Ġsea":6148,"rees":6149,"Ġcredit":6150,"Ġcreating":6151,"------------------------------------------------":6152,"Config":6153,"va":6154,"Ġ2004":6155,"Ġlatter":6156,"BI":6157,"specific":6158,"Ġcoe":6159,"ĠPort":6160,"cks":6161,"Ġanc":6162,"kappa":6163,"ĠUnder":6164,"Ġregist":6165,"het":6166,"ville":6167,"night":6168,"Ġemployees":6169,"block":6170,"terest":6171,"Ġarms":6172,"While":6173,"ĠGermany":6174,")?":6175,"Ġdose":6176,"Ġwaiting":6177,"Field":6178,"ĠFrance":6179,"rape":6180,"Ġmanif":6181,"Ġdownload":6182,"mic":6183,"Ġsupply":6184,"Ãº":6185,"oom":6186,"Trans":6187,"mbox":6188,"Ġmes":6189,"ĠIll":6190,"ĠBer":6191,"Ġtrain":6192,"Ġlit":6193,"Ġdiet":6194,"Ġsentence":6195,"phone":6196,"Sigma":6197,"Ġscene":6198,"ĠSur":6199,"ĠDE":6200,"ĠLord":6201,"look":6202,"ÑĤÐ¾":6203,"Ġtestimony":6204,"Ġcrow":6205,"Ġmouth":6206,"sens":6207,"Ġwel":6208,"Ġcitiz":6209,"ĠSmith":6210,"ometry":6211,"etes":6212,"Ġship":6213,"pled":6214,"GR":6215,"ãģŁ":6216,"node":6217,"Ġincorpor":6218,"Ġcontained":6219,"Ġprofile":6220,"~~~":6221,"Ġsales":6222,"Ġstood":6223,"cel":6224,"ilde":6225,"inder":6226,"MT":6227,"ras":6228,"iant":6229,"ansion":6230,"Ġearn":6231,"Â»":6232,"ĠRem":6233,"ulin":6234,"Ġsuff":6235,"ï¼Į":6236,"Ġliterature":6237,"Ġadding":6238,"ilarly":6239,"Ġexistence":6240,"appe":6241,"Ġplants":6242,"ameter":6243,"ĠCR":6244,"Ġ2019":6245,"Ġsymm":6246,"Ġsust":6247,"âĢĬ":6248,"Ġofficers":6249,"Ġteac":6250,"Ġlargest":6251,"Ġdriver":6252,"Ġmental":6253,"Â·":6254,"**]{},":6255,"ĠDay":6256,"current":6257,"Ġanalyses":6258,"ãģ¦":6259,"Ġesc":6260,"_{{\\":6261,"Ġcommercial":6262,"Ġauthority":6263,"Ġdescribe":6264,"''":6265,"Ġstd":6266,"ĠCommun":6267,"ĠTom":6268,"Ġ--------":6269,"ĠAre":6270,"Ġvote":6271,"nonumber":6272,"last":6273,"Ġdriving":6274,"ĠMichael":6275,"Ġsquare":6276,"ĠYes":6277,"Ġà¤":6278,"Ġstories":6279,"ĠOut":6280,"Ġproperly":6281,"Ġinterests":6282,"hr":6283,"sible":6284,"Ġloop":6285,"Hand":6286,"Ġreferred":6287,"Ġbes":6288,"bert":6289,"nam":6290,"Ġthread":6291,"Ġshut":6292,"ĠBoth":6293,"Ġindeed":6294,"Ġmechanisms":6295,"Ġsignals":6296,"Ġconcentrations":6297,"Just":6298,"frame":6299,"\":\"":6300,"Ġmaster":6301,"ĠDel":6302,"Ġfol":6303,"Ġstanding":6304,"ĠCode":6305,"Ġspot":6306,"just":6307,"Ġcatal":6308,"Ġlearned":6309,"Ġcompleted":6310,"Ġpure":6311,"Ġepis":6312,"Ġcarbon":6313,"stract":6314,"ĠNews":6315,"Ġquantum":6316,"ÂŃ":6317,"normal":6318,"run":6319,"Ġtransmission":6320,"Ġlatest":6321,"range":6322,"Ġempty":6323,"Ġsupposed":6324,"BA":6325,"YS":6326,"MO":6327,"Ġpeace":6328,"Ġstopped":6329,"Ġerrors":6330,"Ġmodule":6331,".[@":6332,"Ġlibrary":6333,"ÃŃa":6334,"Ġran":6335,"Ġofficials":6336,"stein":6337,"uate":6338,"Ġmeasurements":6339,"front":6340,"write":6341,"ãģ§":6342,"Ġbreath":6343,"Ġneighbor":6344,"ĠSecond":6345,"abla":6346,"Ġimportance":6347,"QL":6348,"Ġgain":6349,"olf":6350,"Ġparticles":6351,"ĠEq":6352,"Ġinteractions":6353,"ih":6354,"ca":6355,"ias":6356,"ĠWestern":6357,"outhern":6358,"opic":6359,"ja":6360,"Ġpool":6361,"ears":6362,"ĠMet":6363,"ERT":6364,"induced":6365,"edy":6366,"NT":6367,"num":6368,"Ġwire":6369,"ptions":6370,"Ġapprec":6371,"Ġelim":6372,"rog":6373,"Ġremained":6374,"page":6375,"Ġpurposes":6376,"Ġdecrease":6377,"Ġgenetic":6378,"Ġinsp":6379,"Ġpolic":6380,"Ġcustomers":6381,"Ġmembrane":6382,"Ġmir":6383,"Ġahead":6384,"Ġpossibility":6385,"Ġinvolve":6386,"Ġfarm":6387,"ipped":6388,"Ġbuffer":6389,"ĠCO":6390,"ĠMary":6391,"{{":6392,"(&":6393,"Ġjurisd":6394,"ĠMat":6395,"ĠUnion":6396,"Ġnan":6397,"Ġlung":6398,"Ġ/**":6399,"MI":6400,"Ġaren":6401,"amily":6402,"Ġconserv":6403,"Ġstreet":6404,"First":6405,"ĠDuring":6406,"Ġbutton":6407,"ariant":6408,"Ġappar":6409,"ĠChurch":6410,"ĠSupreme":6411,"Ġremainder":6412,"Ġplane":6413,"ĠChristian":6414,"roller":6415,"ãģ¯":6416,"ishes":6417,"Ġsouth":6418,"dy":6419,"Ġpowerful":6420,"Ġdirector":6421,"Ġcriminal":6422,"Ġequivalent":6423,"ker":6424,"Ġattract":6425,"==========":6426,"Ġma":6427,"Ġsequences":6428,"Ġexchange":6429,"Pe":6430,"icians":6431,"url":6432,"GG":6433,"However":6434,"Ġreceptor":6435,"after":6436,"ĠTechn":6437,"Ġmovie":6438,"mem":6439,"ĠPD":6440,"core":6441,"Ġarbit":6442,"ĠJes":6443,"Ġing":6444,"Ġuniform":6445,"born":6446,"ãĤĴ":6447,"Î¯":6448,"ani":6449,"Ġconclusion":6450,"RS":6451,"Ġoutcome":6452,"Ġconvert":6453,"ĠCouncil":6454,"Ã¢":6455,"lif":6456,"Ġgreatest":6457,"iveness":6458,"onday":6459,"oyal":6460,"ÙĬ":6461,"ora":6462,"uries":6463,"cence":6464,"ĠÐº":6465,"Ġhaven":6466,"Ġ2003":6467,"ĠSal":6468,"rect":6469,"aming":6470,"aneous":6471,"Ġstable":6472,"ader":6473,"\\!":6474,"ructions":6475,"Ġelev":6476,"Ġbrow":6477,"Ġ38":6478,"win":6479,"Ġhypothes":6480,"Ġcas":6481,"antic":6482,"Ġexpert":6483,"Ġfinite":6484,"ĠCompany":6485,"Ġelectron":6486,"Ġidentity":6487,"ĠIII":6488,"ĠPeople":6489,"Ġindicates":6490,"Ġprojects":6491,"Ġbillion":6492,"ĠGreat":6493,"Americ":6494,"Ġfell":6495,"Ġoperating":6496,"jected":6497,"Ġequipment":6498,"Ġgonna":6499,"Ġenem":6500,"Ġinsurance":6501,"Inter":6502,"Ġleaves":6503,"Yeah":6504,"Ġflat":6505,"Ġextended":6506,"Ġcateg":6507,"Ġorigin":6508,"faces":6509,"ĠBel":6510,"Ġbra":6511,"Ġfluid":6512,"ĠStat":6513,"ĠInstitute":6514,"Ġexception":6515,"Ġhelped":6516,"Ġspeech":6517,"Ġflex":6518,"Ġmouse":6519,"Ġ(!":6520,"Ġseeing":6521,"Ġeventually":6522,"anges":6523,"nabla":6524,"IO":6525,"ĠAddition":6526,"aine":6527,"ĊĊĠĠĠĠĠĠ":6528,"Ġpour":6529,"Ġplasma":6530,"agen":6531,"ÙĪ":6532,"md":6533,"Ġdra":6534,"Ġcontrolled":6535,"sole":6536,"ĠAlex":6537,"onald":6538,"KE":6539,"Array":6540,"ampions":6541,"Ġappoint":6542,"stood":6543,"Ġemot":6544,"cluding":6545,"Ġreturns":6546,"real":6547,"ĠClass":6548,"Ġneuro":6549,"Ġexcell":6550,"draw":6551,"rer":6552,"eric":6553,"Ġholds":6554,"Ġ------------":6555,"Ġmaintain":6556,"crib":6557,"Ne":6558,"Ġsecondary":6559,"Ġdiab":6560,"Ġnav":6561,"ĠÐ´":6562,"ords":6563,"Ġbelieved":6564,",-":6565,"Ġcamera":6566,"Ġhappens":6567,"ATION":6568,"Ġmostly":6569,"ĠTra":6570,"Color":6571,"Ġmiles":6572,"ando":6573,"Ġapparatus":6574,"ND":6575,"Ġdiseases":6576,"asks":6577,"})$":6578,"Ġvirus":6579,"ĠCA":6580,"Ġconfirm":6581,"vi":6582,"Ġ2001":6583,"Image":6584,"RL":6585,"ĠKore":6586,"ĠAL":6587,"Ġfilms":6588,"nce":6589,"Ã¶r":6590,"Ġforth":6591,"ads":6592,"rie":6593,"ĊĠĠĠĠĠĠĠĠĠĠĠĠĠĠĠĠĠĠĠĠĠĠĠĠĠĠĠ":6594,"anes":6595,"âĢĿ.":6596,"icrosoft":6597,"Ġaware":6598,"Att":6599,"/\\":6600,"NE":6601,"Ġjoin":6602,"Ġsubstrate":6603,"rive":6604,"Ġrepresented":6605,"opyright":6606,"orders":6607,"ĠFinally":6608,"typ":6609,"Ġreality":6610,"Ġruns":6611,"mittee":6612,"Ġcelebr":6613,"Ġmuscle":6614,"Ġcrime":6615,"ĠSet":6616,"Ġrelief":6617,"2015":6618,"Ã±":6619,"2013":6620,"Fl":6621,"\",\"":6622,"ĠRob":6623,"iller":6624,"Ġbright":6625,"ses":6626,"Ġschools":6627,"Ġsurvey":6628,"ĠService":6629,"Ġpregn":6630,"reate":6631,"Ġoccurs":6632,"Ġgenerate":6633,"Ġcharged":6634,"Ġspectrum":6635,"xture":6636,"lets":6637,"ĠNS":6638,"Ġveloc":6639,"Ġestimate":6640,"}+":6641,"plify":6642,"Ġstatute":6643,"ello":6644,"ĠAR":6645,"Map":6646,"())":6647,"gebra":6648,"ĠFOR":6649,"Ġlov":6650,"aper":6651,"Ġbalance":6652,"ests":6653,"arian":6654,"Ġleader":6655,"Ġserum":6656,"________________":6657,"]),":6658,"Ġconfiguration":6659,"Ġfundament":6660,"PH":6661,"orthern":6662,"ync":6663,"ithub":6664,"Ġexamples":6665,"iliar":6666,"TC":6667,"Ġdigit":6668,"Ġteams":6669,"care":6670,"Ġmel":6671,"matrix":6672,"########":6673,"ĠMany":6674,"ln":6675,"sa":6676,"ogene":6677,"Ġbattle":6678,"mas":6679,"api":6680,"ye":6681,"Ġdeveloping":6682,"Ġextremely":6683,"ãģª":6684,"Ġdiag":6685,"istent":6686,"she":6687,"ialog":6688,"ĠMex":6689,"ĠJapanese":6690,"Any":6691,"ĠVir":6692,"Ġmorph":6693,"ĠHall":6694,"actory":6695,"Ġjournal":6696,"Ġfinished":6697,"ĠMem":6698,"Ġthanks":6699,"arden":6700,"Ġinner":6701,"Ġsigned":6702,"Ġ64":6703,"Ġaf":6704,"ĠRead":6705,"itory":6706,"istor":6707,"ammat":6708,"ocy":6709,"weight":6710,"crete":6711,"Ġexcess":6712,"Ñħ":6713,"itative":6714,"Ass":6715,"Ġvoltage":6716,"eles":6717,"abilities":6718,"DL":6719,"Ġchronic":6720,"Are":6721,"ĠRet":6722,"ĠSE":6723,"Ġforced":6724,"Ġtro":6725,"Ġliver":6726,"ĠObama":6727,"Ġexamined":6728,"iler":6729,"nbsp":6730,"Ġefficiency":6731,"Ġ()":6732,"Ġdebt":6733,"ena":6734,"omorph":6735,"Ġsho":6736,"FC":6737,"Ġsrc":6738,"ilder":6739,"Ġdelivery":6740,"ĠFranc":6741,"Dis":6742,"ĠFacebook":6743,"Ġgar":6744,"Ġneither":6745,"ading":6746,"Ġice":6747,"\"></":6748,"Ġprosec":6749,"Ġ2002":6750,"Ġauto":6751,"Ð°Ð½":6752,"2012":6753,"source":6754,"Ġagency":6755,"ĠWhich":6756,"2014":6757,"Ġevaluated":6758,"ortunately":6759,"ĠCalculate":6760,"Ġthousands":6761,"FR":6762,"åĪ":6763,"FI":6764,"widet":6765,"dots":6766,"Ġcolon":6767,"alian":6768,"amine":6769,"appro":6770,"Ġfish":6771,"Ġsubsequent":6772,"rivate":6773,"Ġcycl":6774,"Ġchosen":6775,"ĠPhil":6776,"Ġrepresentation":6777,"Ġhighlight":6778,"Ġ-->":6779,"Ġadult":6780,"Ġ500":6781,"MR":6782,"imb":6783,"Ġachieved":6784,"ifications":6785,"\").":6786,"Ġcalling":6787,"local":6788,"May":6789,"rehen":6790,"Ġrich":6791,"ĠFriday":6792,"small":6793,"widetilde":6794,"Ġdeg":6795,"ĠJudge":6796,"Ġdesired":6797,"Log":6798,"Ġalcoh":6799,"Rep":6800,"Ġassessment":6801,"Ġmixed":6802,"Ġarchitect":6803,"ĠÃĹ":6804,"ĠFoundation":6805,"Ġissued":6806,"Ġtag":6807,"Ġ×":6808,"ti":6809,"Ste":6810,"ĠMag":6811,"Ġmeasurement":6812,"Ġnic":6813,"ancing":6814,"ĠCircuit":6815,"Ġtwenty":6816,"omes":6817,"dependent":6818,"Ġspl":6819,"ĠCollege":6820,"ashion":6821,"Ġ});":6822,"Request":6823,"Go":6824,"ĠMrs":6825,"Ġdirected":6826,"á»":6827,"Ġpossibly":6828,"Ġcollege":6829,"Ġsubstantial":6830,"Ġmanufacture":6831,"Ġattorney":6832,"Ġintellig":6833,"ola":6834,"cup":6835,"Ġgirls":6836,"inst":6837,"aked":6838,"Ã¤n":6839,"reshold":6840,"Ġexplicit":6841,")\"":6842,"ĠVol":6843,"-------":6844,"Ġtox":6845,"Ġpaint":6846,"Ġviews":6847,"isher":6848,"fee":6849,"ĠDiv":6850,"etric":6851,"utor":6852,"fa":6853,"oking":6854,"icated":6855,"Ġbaby":6856,"osa":6857,"Ġintent":6858,"Ġamb":6859,"**(-":6860,"Ġtight":6861,"Ġdepth":6862,"ĠTime":6863,"Ġcriteria":6864,"Ġtypical":6865,"Ġsin":6866,"Co":6867,"result":6868,"Ġiron":6869,"These":6870,"XX":6871,"Ġsession":6872,"ĠScience":6873,"ician":6874,"=======":6875,"Count":6876,"Ġ75":6877,"Ġextension":6878,"jud":6879,"Ġcond":6880,"Ġreceiving":6881,"ĠLeague":6882,"Ġprotected":6883,"ĊĊĉ":6884,"Ġpositions":6885,"Ġdiscovered":6886,"Ġvary":6887,"Ġchanging":6888,"Ġnarrow":6889,"Che":6890,"ĠFrank":6891,"ipher":6892,"Ġheter":6893,"pack":6894,"ĠNa":6895,"Ġfilled":6896,"ĠTheorem":6897,"Ø±":6898,"TS":6899,"riend":6900,"101":6901,")[":6902,"IST":6903,"Ġthin":6904,"Ġangle":6905,"ĠMA":6906,"Ġdestroy":6907,"Node":6908,"ĠRobert":6909,"ĠBay":6910,"Ġnod":6911,"2000":6912,"ĠUsing":6913,"å®":6914,"mt":6915,"ygen":6916,"Ġfraction":6917,"GB":6918,"\\{":6919,"}}_{":6920,"Ġjump":6921,"standing":6922,"Ġpert":6923,"ĠSunday":6924,"Ġeasier":6925,"Ġnetworks":6926,"acle":6927,"/**":6928,"Ġ39":6929,"ostic":6930,"teen":6931,"osh":6932,"ĠLem":6933,"Ġskills":6934,"law":6935,"Ġenvironmental":6936,"ĠMil":6937,"Ġlived":6938,"Ġallowing":6939,"Method":6940,"ĠBi":6941,"Ġunderlying":6942,"Ġalt":6943,"Ġlymph":6944,"Ġspend":6945,"ashed":6946,"Ġinvestigated":6947,"aren":6948,"Ġchair":6949,"mes":6950,"create":6951,"ocytes":6952,"SM":6953,"ĠMo":6954,"ãģĮ":6955,"Date":6956,")/(":6957,"Ġordered":6958,"2016":6959,"supplementary":6960,"Ġking":6961,"duc":6962,"apped":6963,"Ġshock":6964,"dimensional":6965,"uh":6966,"Ġfab":6967,"Ġcurve":6968,"SU":6969,"mo":6970,"Ġoutcomes":6971,"Ġscheme":6972,"ĠLike":6973,"ĠAustralia":6974,"uce":6975,"Ġunivers":6976,"Ġimaging":6977,"Ġprincip":6978,"Ġassay":6979,"Ġeconomy":6980,"Ġrecall":6981,"ĠMad":6982,"Ġtub":6983,"default":6984,"Ġune":6985,"itely":6986,"User":6987,"Ġalter":6988,"ceived":6989,"rid":6990,"Ġacts":6991,"Ġpolar":6992,"ĠIns":6993,"ãĥ¼":6994,"Ġacknow":6995,"Group":6996,"$(":6997,"Ġdetailed":6998,"Ġamaz":6999,"Ġfourth":7000,"child":7001,"Ġasking":7002,"Ġom":7003,"Ġcompounds":7004,"Ġinteger":7005,"Equ":7006,"ĠPen":7007,"$$\\":7008,"Ġisolated":7009,"Ġapproved":7010,"Ġemph":7011,"Ã§Ã£o":7012,"Ġchief":7013,"Ġsorry":7014,"Ġminute":7015,"Ġsup":7016,"Ġtwice":7017,"Ġton":7018,"ĠParty":7019,"eding":7020,"aturday":7021,"Ġdepends":7022,"icted":7023,"Ġimmune":7024,"Ġlie":7025,"Ġmarried":7026,"ÐµÑĢ":7027,"ammatory":7028,"Ġcoverage":7029,"Ġcapable":7030,"Ġrelates":7031,"Aut":7032,"ĠQue":7033,"Ġconc":7034,"Ġcompens":7035,"Ġleaders":7036,"ĠCommittee":7037,"-----":7038,"claim":7039,"ells":7040,"Ġsalt":7041,"Ġsac":7042,"Ġtranscript":7043,"Ġspat":7044,"Fil":7045,"Ġappellant":7046,"Ġtick":7047,"Element":7048,"Ġelectronic":7049,"Ġstrongly":7050,"first":7051,"break":7052,"ĠTur":7053,"åħ":7054,"ĠMa":7055,"TO":7056,"annels":7057,"Ġsmart":7058,"ĠHill":7059,"Ġvacc":7060,"Ġsitting":7061,"dt":7062,"Ð°ÑĤ":7063,"ĠWeb":7064,"ito":7065,"iner":7066,"ĠSum":7067,"ipl":7068,"Ġdefect":7069,"Î³":7070,"FP":7071,"Ġbatter":7072,"Ġterror":7073,"mand":7074,"asy":7075,"--------------------------------------------------------------------------------------------------------------------------------":7076,"Ġ+=":7077,"ala":7078,"Ġpossess":7079,"][":7080,"cr":7081,"SL":7082,"Ġhell":7083,"]--":7084,"ĠNor":7085,"ĠGood":7086,"Ġdecisions":7087,"Äį":7088,"Ġemployed":7089,"Ġimplementation":7090,"Your":7091,"Ġentirely":7092,"okes":7093,"xe":7094,"inations":7095,"Ġgra":7096,"ĠHen":7097,"press":7098,"Ġmarked":7099,"Ġguide":7100,"Ġevaluation":7101,"Model":7102,"operative":7103,"Ġfocused":7104,"Ġquiet":7105,"ĠAmericans":7106,"tex":7107,"has":7108,"ä½":7109,"ido":7110,"ĠdÃ©":7111,"Ġtens":7112,"ĠAssociation":7113,"itable":7114,"Ġlisted":7115,"Ġsections":7116,"Ġincident":7117,"Ġplays":7118,"ĠRiver":7119,"Ġgod":7120,"Ġsides":7121,"Ġgluc":7122,"Ġarguments":7123,"Ġexcellent":7124,"Ġ44":7125,"itud":7126,"\"}.":7127,"According":7128,"uesday":7129,"2017":7130,"Ġintensity":7131,"Ġdiscrim":7132,"select":7133,"ÏĮ":7134,"Ġtraffic":7135,"Ġbrand":7136,"Ġtrees":7137,"Ġcategory":7138,"Ġstored":7139,"CI":7140,"Ġduty":7141,"Ġgly":7142,"Ġcorner":7143,"Click":7144,"Ġversus":7145,"Ġexplan":7146,"ãģĻ":7147,"Ġquarter":7148,"ket":7149,"doc":7150,"ĠLeg":7151,"Ġbroken":7152,"Ġpercentage":7153,"Ġdream":7154,"unc":7155,"Ġaccord":7156,"Ġdefendants":7157,"ĠTheir":7158,"Where":7159,"Ġconfidence":7160,"Ġnom":7161,"Ġraise":7162,"}.":7163,"Ġju":7164,"ĠSN":7165,"Ġlose":7166,"Ġgranted":7167,"Ġadvance":7168,"Ġbeat":7169,"oday":7170,"iot":7171,"006":7172,"Ġforg":7173,"ITH":7174,"Ġdocuments":7175,"Ġpathway":7176,"Ð¿":7177,"Ġtables":7178,"Ġobser":7179,")=\\":7180,"áĢ":7181,"wed":7182,"Ġfreedom":7183,"gression":7184,"bal":7185,"ĠVer":7186,"Ġincub":7187,"cial":7188,"ĠForm":7189,"Ġunderstood":7190,"ailed":7191,"Ġmainly":7192,"ĠThomas":7193,"Ġ&=":7194,"Ġworse":7195,"ĠFin":7196,"2010":7197,"Ġaccuracy":7198,"Ġ${{\\":7199,"Ġunknown":7200,"Ġspring":7201,"Ġjour":7202,"Ġmanager":7203,"Ġoblig":7204,"Ġphilos":7205,"Ġfrequently":7206,"reek":7207,"valid":7208,"Ġnotes":7209,"Ġformula":7210,"ĠWed":7211,"ĠOnly":7212,"agger":7213,"ĠMonday":7214,"Ġviolence":7215,"Ġmetabol":7216,"Ġplanning":7217,"ĠER":7218,"Ġminim":7219,"Ġpas":7220,"Ġpages":7221,"Ġ${":7222,"ĠBook":7223,"áĥ":7224,"Ġrough":7225,"uls":7226,"xml":7227,"ĠFlor":7228,"Ġreligious":7229,"kins":7230,"ĠBrown":7231,"Ġstatements":7232,"Ġion":7233,"Ġfuel":7234,"Ġevening":7235,"Ġegg":7236,"Ġpy":7237,"adow":7238,"Ġprotocol":7239,"Ġabuse":7240,"ĠOnce":7241,"Ġarrived":7242,"ĠWH":7243,"AAAA":7244,"ĠRussian":7245,"Ġregulation":7246,"å¤":7247,"ested":7248,"Ġ65":7249,"ĠWilliam":7250,"Ġseconds":7251,"]--[@":7252,"Ġadministr":7253,"Ã¸":7254,"Ġdeliver":7255,"GC":7256,"Ġprocedures":7257,"Ġcharges":7258,"kl":7259,"oret":7260,"Ġtor":7261,"Ġguarant":7262,"main":7263,"Ġpp":7264,"query":7265,"Ġintervention":7266,"Ġadvanced":7267,"Ġcaught":7268,"else":7269,"amber":7270,"UD":7271,"Ġapproaches":7272,"Ġtom":7273,"gers":7274,"Ġcompare":7275,"Ġenhance":7276,"Ġconsult":7277,"github":7278,"Ġcart":7279,"BP":7280,"GA":7281,"ĠGold":7282,"Ġopposite":7283,"Ġappearance":7284,"endif":7285,"Ġ55":7286,"Ġsale":7287,"venue":7288,"Ġcritic":7289,"roke":7290,"Ġdepending":7291,"}}^":7292,"ĠGovernment":7293,"Ġconsidering":7294,"çĶ":7295,"icago":7296,"bid":7297,"anta":7298,"Ġbool":7299,"Ġowner":7300,"Ġmanaged":7301,"Solve":7302,"acks":7303,"ĠCr":7304,"Â¶":7305,"Ċĉĉĉĉĉ":7306,"ĠCI":7307,"OUT":7308,"gi":7309,"Ġusual":7310,"Ġobservations":7311,"Ġadvert":7312,"Ġtelevision":7313,"Ġquery":7314,"cut":7315,"Ġca":7316,"Ġseat":7317,"Ġpulled":7318,"Ġmodified":7319,"gent":7320,"Ġcort":7321,"Ġcompetition":7322,"imately":7323,"Å¡":7324,"ĠField":7325,"Ġstimul":7326,"Ġexposed":7327,"2011":7328,"Ġau":7329,"gt":7330,"sor":7331,"posed":7332,"ĠSl":7333,"ĠInternet":7334,"oster":7335,"sect":7336,"Ġillustr":7337,"Ġsensitivity":7338,"dir":7339,"Ġgoals":7340,"Ġaccident":7341,"Ġconflict":7342,"Ġdoctor":7343,"Ġ120":7344,"Ġvess":7345,"utely":7346,"Ġcos":7347,"Ġconcerns":7348,"Ġbag":7349,"uy":7350,"Ġsweet":7351,"Ġconsc":7352,"Ġrecovery":7353,"Ġstick":7354,"Ġtill":7355,"Ġaccum":7356,"ĠAnn":7357,"Ġpod":7358,"Ġris":7359,"Ġscr":7360,"Ġscores":7361,"Ġlimitations":7362,"Ġindepend":7363,"edia":7364,"Ġorders":7365,"Ġcluster":7366,"Ġresulted":7367,"Ġanalog":7368,"Which":7369,"Ġstrain":7370,"mi":7371,"Ġalle":7372,"Ġjobs":7373,"ursday":7374,"Ġdistingu":7375,"Ġwilling":7376,"ĠUN":7377,"akers":7378,"ko":7379,"otten":7380,"ellular":7381,"Ġassuming":7382,"enth":7383,"CF":7384,"Ġble":7385,"ĠSD":7386,"estic":7387,"bour":7388,"olt":7389,"Ġecho":7390,"Ġrac":7391,"Ġgate":7392,"ĠWill":7393,"ORT":7394,"organ":7395,")}\\":7396,"istan":7397,"ITY":7398,"cretion":7399,"Ġended":7400,"ĠCT":7401,"process":7402,";\\":7403,"ĠLouis":7404,"Ġexperienced":7405,"Ġtrip":7406,"Ġinvestigate":7407,"Ġconstitution":7408,"iral":7409,"ĠAS":7410,"ifferent":7411,"MD":7412,")^{":7413,"Ġjoined":7414,"rip":7415,"Ġnumerous":7416,"Ġapart":7417,"Pre":7418,"ĠĠĠĠĠĠĠĠĠĠĠĠĠĠĠĠĠĠĠĠĠĠĠĠĠĠĠĠĠĠĠĠĠĠĠĠĠĠĠĠĠĠĠĠĠĠĠĠĠĠĠĠĠĠĠĠĠĠĠĠĠĠĠĠĠĠĠĠĠĠĠĠĠĠĠĠĠĠĠĠĠĠĠĠĠĠĠĠĠĠĠĠĠĠĠĠĠĠĠĠĠĠĠĠĠĠĠĠĠĠĠĠĠĠĠĠĠĠĠĠĠĠĠĠĠĠĠĠĠĠĠĠĠĠĠĠĠĠĠĠĠĠĠĠĠĠĠĠĠĠĠĠĠĠĠĠĠĠĠĠĠĠĠĠĠĠĠĠĠĠĠĠĠĠĠĠĠĠĠĠĠĠĠĠĠĠĠĠĠĠĠĠĠĠĠĠĠĠĠĠĠĠĠĠĠĠĠĠĠĠĠĠĠĠĠĠĠĠĠĠĠĠĠĠĠĠĠĠĠĠĠĠĠĠĠĠĠĠĠĠĠĠĠĠĠĠĠĠĠĠĠĠĠĠĠĠ":7419,"ĠRussia":7420,"Ġhall":7421,"Ġequations":7422,"Ġdil":7423,"clusive":7424,"Ø§ÙĦ":7425,"Ġwalked":7426,"Ġentitled":7427,"rypt":7428,"Ġcandidate":7429,"sin":7430,"^+^":7431,"Ġphenomen":7432,"Ġfuck":7433,"height":7434,"Ġpieces":7435,"imer":7436,"rapeut":7437,"Ġresearc":7438,"Ġdetermination":7439,"Ġorient":7440,"ilty":7441,"**]{}":7442,"Ġideal":7443,"Ġreplic":7444,"anda":7445,"/-":7446,"Ġ00":7447,"Ġpush":7448,"olean":7449,"ĠHIV":7450,"Ġrestaur":7451,"ĠOffice":7452,"bered":7453,"Service":7454,"Ġnine":7455,"Ġfans":7456,"oded":7457,"Ġqui":7458,"then":7459,"Ġgrav":7460,"Ġarter":7461,"ĠWindows":7462,"Ġstandards":7463,"Ġexpansion":7464,"Ġduration":7465,"uscript":7466,"Ġ300":7467,"Ġsuitable":7468,"Ġpurchase":7469,"Ġevaluate":7470,"Ġformal":7471,"Message":7472,"Gen":7473,"ateral":7474,"Ġmine":7475,"Ġrecognized":7476,"Ġimpossible":7477,"ometric":7478,"_,":7479,"Ġdraft":7480,"only":7481,"Ġplot":7482,"endment":7483,"ĠÐ¿ÑĢ":7484,"Ġwatching":7485,"Ġpreval":7486,"ĠOpen":7487,"Ïī":7488,"Ġboot":7489,"Ġhem":7490,"ĠScott":7491,"Ġdispl":7492,"Ġoxid":7493,"Ġguard":7494,"Ġhumans":7495,"Rev":7496,"ĠFR":7497,"ĠTR":7498,"Ġwarrant":7499,"nesday":7500,"Ġvirtual":7501,"External":7502,"Ġbug":7503,"({":7504,"comple":7505,"ÐµÑĤ":7506,"product":7507,"Fe":7508,"ĠLu":7509,"Ġphoto":7510,"lik":7511,"Ġconcerned":7512,"Ġassessed":7513,"Ġluck":7514,"Ġmission":7515,"ĠHel":7516,"CK":7517,"Ġrare":7518,"âĢĿ,":7519,"Ġfill":7520,"war":7521,"Ġ{{\\":7522,"Ġconclude":7523,"anning":7524,"scale":7525,"ĠBre":7526,"Ġparallel":7527,"ugin":7528,"ĠAfrica":7529,"ĠMass":7530,"Ġsettings":7531,"Ġbiological":7532,"Ġadvice":7533,"Box":7534,"Ġsand":7535,"GE":7536,"ĠÂ«":7537,"iples":7538,"andon":7539,"Since":7540,"Ġ47":7541,"Ġ1999":7542,"iences":7543,"ulture":7544,"\"})":7545,"Ġboundary":7546,"rency":7547,"Ġcris":7548,"orted":7549,"Ġbecoming":7550,"tw":7551,"300":7552,"del":7553,"icious":7554,"Line":7555,"Ġclaimed":7556,"Ge":7557,"Ġspoke":7558,"Ġwidely":7559,"Ġkeeping":7560,"Ġbudget":7561,"ben":7562,"ĠEarth":7563,"ainer":7564,"ĠRef":7565,"Ġdemonstrate":7566,"Ġknock":7567,"INE":7568,"Ġjurisdiction":7569,"fess":7570,"Te":7571,"Ġfort":7572,"PU":7573,"Ġaccompl":7574,"adian":7575,"Ġconsent":7576,"Ġremark":7577,"Ent":7578,"Ġconven":7579,"author":7580,"Ġfavorite":7581,"Ġ49":7582,"web":7583,"Ġsister":7584,"Ġtrials":7585,"ami":7586,"ju":7587,"Ġpet":7588,"Ġunable":7589,"Ġdisk":7590,"ĠSolve":7591,"never":7592,"Ġgalax":7593,"Ġtrouble":7594,"zeta":7595,"Ġreprodu":7596,"Ġadm":7597,"Ġrats":7598,"Ġsignaling":7599,"Ġvelocity":7600,"aven":7601,"tra":7602,"Ġstatistical":7603,"usiness":7604,"Ġaccepted":7605,"ĠTor":7606,"Ġ41":7607,"ijms":7608,"SR":7609,"ĠMer":7610,"Ġhence":7611,"src":7612,"Ġfamiliar":7613,"Ġspecified":7614,"Ġdecide":7615,"ĠCarol":7616,"Ġdress":7617,"Ð¸ÑĤ":7618,"Ġdatas":7619,"Ġroute":7620,"Ġneck":7621,"Ġthereby":7622,"Ġpopulations":7623,"Ġjava":7624,"Ġhoriz":7625,"}=\\":7626,"Ġvariation":7627,"Ġdomin":7628,"********************************":7629,"Ġnodes":7630,"ĊĠĠĠĠĠĠĠĠĠĠ":7631,"ĠBur":7632,"Ġthr":7633,"Ġloved":7634,"Ġends":7635,"Pol":7636,"ivation":7637,"ums":7638,"ĠBill":7639,"Ġsuppl":7640,"ĠĠĠĠĠĠĠĠĠĠĠĠĠĠĠĠĠĠĠĠĠĠĠĠĠ":7641,"Ġdisp":7642,"model":7643,"Ġtemplate":7644,"La":7645,"ĠFree":7646,"Ġmand":7647,"ĠAppe":7648,"ĠNO":7649,"Ġ43":7650,"Ġpept":7651,"Ġstrict":7652,"otted":7653,"TA":7654,"Simplify":7655,"Ġconstraint":7656,"ĠDec":7657,"Ġattached":7658,"Ġrevers":7659,"roduction":7660,"Ġrecording":7661,"Ġworry":7662,"Ġalcohol":7663,"ernel":7664,"ĠGal":7665,"Ġinvolving":7666,"AGE":7667,"ĠJesus":7668,"ĠFederal":7669,")*(":7670,"More":7671,"Ġcab":7672,"lu":7673,"Ref":7674,"Ġstret":7675,"Ã©e":7676,"ÅĤ":7677,"Ġcontribution":7678,"Ġtechnical":7679,"ĠDen":7680,"velopment":7681,"Ġos":7682,"legal":7683,"idelines":7684,"Ġod":7685,"Ġrelationships":7686,"End":7687,"Ġped":7688,"Ġcof":7689,"Ġrub":7690,"cp":7691,"arl":7692,"ching":7693,"ponse":7694,"enance":7695,"grade":7696,"Ġsan":7697,"bug":7698,"Ġmurder":7699,"Ġencoun":7700,"Ġseek":7701,"road":7702,"ĠFIG":7703,"wing":7704,"eller":7705,"iverse":7706,"Ġcogn":7707,"Mr":7708,"YPE":7709,"ĠSing":7710,"ytic":7711,"Ġmanuscript":7712,"Ġfellow":7713,"NO":7714,"ĠTimes":7715,"cdots":7716,"åĲ":7717,"ector":7718,"?âĢĿ":7719,"MC":7720,"Ġdans":7721,"ĠServ":7722,"Ġkne":7723,"Ġinterval":7724,"ĠRichard":7725,"ĠZe":7726,"Ġhelps":7727,"Ġcommitted":7728,"Ġcustomer":7729,"Ġpersons":7730,"ĠWork":7731,"Ġ};":7732,"Ġabund":7733,"ogenic":7734,"hentic":7735,"Ġsuggesting":7736,"%.":7737,"Ġforget":7738,"Ġresource":7739,"Ġradiation":7740,"ĠSecret":7741,"Ġcommonly":7742,"Look":7743,"Ġtelling":7744,"Ġadults":7745,"(\\[":7746,"110":7747,"false":7748,"ĠIran":7749,"sts":7750,"Ġgro":7751,"ĠRad":7752,"Ġcolle":7753,"Ġimprovement":7754,"ĠHence":7755,"ĠFlorida":7756,"Ġdegrees":7757,"aped":7758,"System":7759,"Ð·":7760,"Ġapplicable":7761,"ĠPlease":7762,"Ġsoul":7763,"Ã¡s":7764,"Ġenforce":7765,"Ġoxygen":7766,"defined":7767,"============":7768,"Ġfle":7769,"à¹":7770,"Ġvillage":7771,"Ġarticles":7772,"Ġì":7773,"ochem":7774,"Ġtruly":7775,"charge":7776,"water":7777,"}}{\\":7778,"Source":7779,"ivered":7780,"Ġ150":7781,"tag":7782,"ĠParis":7783,"ĠÑ":7784,"Ġlimits":7785,"Ġcontinues":7786,"Ġbranch":7787,"ifies":7788,"month":7789,"Ġframework":7790,"Ġhole":7791,"Ġaspects":7792,"inet":7793,"Ġassembly":7794,"clusions":7795,"2018":7796,"Ġsought":7797,"Ġpharm":7798,"thm":7799,"Ġmixture":7800,"Â§":7801,"ĠRule":7802,"otherapy":7803,"phen":7804,"brid":7805,"Ġslowly":7806,"Ġindicating":7807,"ASS":7808,"Ġdepartment":7809,"ĠMont":7810,"ĠLife":7811,"ĠSaturday":7812,"Ġcitizens":7813,"etime":7814,"BU":7815,"ructure":7816,"Ġturns":7817,"ĠInstead":7818,"inv":7819,"athy":7820,"Ġpolicies":7821,"Ġwalking":7822,"Ġadequ":7823,"Ġpotentially":7824,"Ġconversation":7825,"ĠĠĠĠĠĠĠĠĠĠĠĠĠĠĠĠĠĠĠĠĠĠĠĠĠĠ":7826,"Ġcourts":7827,"Ġpayment":7828,"target":7829,"Ġpartner":7830,"ĊĠĠĠĠĠĠĠĠĠĠĠĠ":7831,"Part":7832,"Ġsounds":7833,"cf":7834,"acent":7835,"omal":7836,"ilton":7837,"ĠSH":7838,"azine":7839,"Ġcellular":7840,"oration":7841,"Ġaxis":7842,"Please":7843,"Ġast":7844,"%%":7845,"Ġafford":7846,"ushing":7847,"ĠIts":7848,"ether":7849,"ĠMS":7850,"herent":7851,"ĠIr":7852,"iary":7853,"Ġhat":7854,"2009":7855,"LS":7856,"Ġtestified":7857,"aciÃ³n":7858,"Ġpil":7859,"Ġconj":7860,"Ġmassive":7861,"FS":7862,"Call":7863,"Ġstarts":7864,"Ġperman":7865,"ophy":7866,"Ð¾Ð»":7867,"Ġdynamic":7868,"Ġsigns":7869,"option":7870,"star":7871,"ĠFour":7872,"Ġmarriage":7873,"eli":7874,"Ġdimension":7875,"American":7876,"ĠTwitter":7877,"Ġabsolute":7878,"Ġchallenges":7879,"Ġstability":7880,"Who":7881,"$)":7882,"yer":7883,"names":7884,"Ġthreshold":7885,"Ġcommunities":7886,"ĠSand":7887,"ĠUse":7888,"Ġmortality":7889,"Ġcm":7890,"mid":7891,"arsh":7892,"Ġsecure":7893,"ela":7894,"Ġans":7895,"Ġpartial":7896,"Ġaccurate":7897,"ĠWhere":7898,"Ġ1990":7899,"ĠJohnson":7900,"ĠMax":7901,"Ġ46":7902,"Ġhal":7903,"Ġthoughts":7904,"Ġdepart":7905,"Ġflag":7906,"oral":7907,"Two":7908,"Ġprices":7909,"Bar":7910,"mg":7911,"Ġinterpretation":7912,"Ġdys":7913,"layout":7914,"aded":7915,"ĠGive":7916,"Ġtypename":7917,"rine":7918,"Ġrelax":7919,"Ġassigned":7920,"Ġpolymer":7921,"ĠJose":7922,"Ġnative":7923,"Ġrecip":7924,"helial":7925,"Ġacute":7926,"Ġhur":7927,"umns":7928,"007":7929,"Ġreplaced":7930,"Ġnecessarily":7931,"Ġsole":7932,"Ġinstrument":7933,"Ġfundamental":7934,"udd":7935,"Ġfaster":7936,"Ġlinked":7937,"Ġdivers":7938,"BR":7939,"Ġcash":7940,"Ġcharacterized":7941,"Ġtissues":7942,"Ġconcluded":7943,"Ġoral":7944,"rior":7945,"ĠTuesday":7946,"ĠSil":7947,"Ġlarg":7948,"čĊĉ":7949,"Ġclimate":7950,"ĠDO":7951,"Ġfo":7952,"dep":7953,"ĠCE":7954,"fast":7955,"uz":7956,"ĠmRNA":7957,"Ġmerely":7958,"ante":7959,"ĠStr":7960,"Ġphotos":7961,"Ġdefinitely":7962,"Ġdefe":7963,"Ġfluores":7964,"ĠBig":7965,"Ġpictures":7966,"arks":7967,"Ġannual":7968,"Ġfacilit":7969,"Ġmicrosc":7970,"build":7971,"ÃĤ":7972,"Ġfold":7973,"Ġdependent":7974,"Ġburden":7975,"Ġimmig":7976,"Ġsynd":7977,"ĠFrancis":7978,"Ġlicense":7979,"Ġmetric":7980,"onym":7981,"ĠArch":7982,"Ġvisible":7983,"hether":7984,"Ġprolif":7985,"LC":7986,"Ġfan":7987,"Ġscope":7988,"Ġvitro":7989,"Ext":7990,"ĠPeter":7991,"Vert":7992,"ĠFore":7993,"Ġsensitive":7994,"Ġinstructions":7995,"Ġ\"(":7996,"INT":7997,"Ġaccel":7998,"\\]).":7999,"nav":8000,"Ġcloser":8001,"Ġsmallest":8002,"Ġprotest":8003,"ented":8004,"Ġdecades":8005,"Ġinteract":8006,"dule":8007,"ĠPA":8008,"^-":8009,"2008":8010,"Ġplastic":8011,"Ġthousand":8012,"ERR":8013,"NF":8014,"ĠIT":8015,"Ġimplies":8016,"ĠIV":8017,"ji":8018,"ĠEX":8019,"PI":8020,"apse":8021,"ĠEr":8022,"Ġassumed":8023,"Ġ56":8024,"Ġlaunch":8025,"Ġlisten":8026,"ributes":8027,"Ġgent":8028,"Ġstack":8029,"ima":8030,"ĠIslam":8031,"Ġcra":8032,"ĠAnother":8033,"bling":8034,"Ġgap":8035,"Ġinstalled":8036,"Ġhousing":8037,"ĠCap":8038,"Ġattend":8039,"Ġpointed":8040,"Ġflav":8041,"ĠĠĠĠĠĠĠĠĠĠĠĠĠĠĠĠĠĠĠĠĠĠĠĠĠĠĠ":8042,"event":8043,"Ġenable":8044,"iger":8045,":\\":8046,"ĠProject":8047,"Ġbare":8048,"ampionship":8049,"adding":8050,"Query":8051,"undle":8052,"ounded":8053,"omer":8054,"ĠLong":8055,"Ġproved":8056,"Ġconference":8057,"button":8058,"Thanks":8059,"Ġdynamics":8060,"Ġprinciple":8061,"Ġfunds":8062,"Ġ1998":8063,"Ġpix":8064,"Ġfabric":8065,"ĠChicago":8066,"Ġeffectively":8067,"icular":8068,"Ġreact":8069,"ĠEnd":8070,"Ġ52":8071,"mosp":8072,"ials":8073,"cat":8074,"Ġsimpl":8075,"ĠType":8076,"ĠIndeed":8077,"Ġhero":8078,"ĠPo":8079,"à¦":8080,"Ġunion":8081,"Ġsqrt":8082,"Ġsplit":8083,"Ġarbitr":8084,"Ġrail":8085,"\\[[@":8086,"fold":8087,"Ġlayers":8088,"Ġparticle":8089,"Ġantibody":8090,"Stream":8091,"Ġmolecules":8092,"ĠÏĢ":8093,"Am":8094,"Ġven":8095,"eness":8096,"Ġwalls":8097,"ACK":8098,"nel":8099,"dict":8100,"Ġobjective":8101,"Ġattacks":8102,"Ġtail":8103,"Ġguilty":8104,"Ġreverse":8105,"pload":8106,"Ġsupporting":8107,"Ġvot":8108,"rows":8109,"END":8110,"Ġvision":8111,"&=":8112,"Ġmaps":8113,"Back":8114,"Ð°Ð»":8115,"ĠAfrican":8116,"Ġcommission":8117,"Ġoccasion":8118,"Ġeditor":8119,"ressive":8120,"Ġchannels":8121,"format":8122,"aria":8123,"Ġcoh":8124,"Ġlargely":8125,"Ġfees":8126,"ĠĊĠĠĠ":8127,"Ġstrategies":8128,"Ġpredicted":8129,"Ġrig":8130,"Ġputting":8131,"ĠÑĤ":8132,"Ġshell":8133,"Ġpassing":8134,"Ġidentification":8135,"Ġwaste":8136,"ĠâĢ¦":8137,"iously":8138,"ĠStar":8139,"Ġfashion":8140,"Ġperm":8141,"ĠSol":8142,"!--":8143,"Ġreson":8144,"ERE":8145,"ĠCle":8146,"Ġinvestment":8147,"Ġtoler":8148,"Ġfeat":8149,"irector":8150,"ĠIP":8151,"Ġhun":8152,"dist":8153,"Ġrealized":8154,"ĠÂ£":8155,"Ġbath":8156,"pg":8157,"ĠON":8158,"Hz":8159,"Ġcontribute":8160,"oked":8161,"Ġinstant":8162,"ollowing":8163,"Ġlaser":8164,"ĠDefendant":8165,"Ġ[]":8166,"Ġmessages":8167,"ĠCentral":8168,"Ġreplace":8169,"linear":8170,"čĊĠĠĠĠĠĠĠĠĠĠĠ":8171,"ĠJo":8172,"ottom":8173,"Ġadmitted":8174,"urop":8175,"ĠWal":8176,"ftware":8177,"Ġconsideration":8178,"Øª":8179,"ĠLi":8180,"Ġemployee":8181,"Ġsight":8182,"inton":8183,"plant":8184,"Ġ72":8185,"Ġradi":8186,"athered":8187,"contin":8188,"Ġinformed":8189,"ĠLog":8190,"120":8191,"Ġsched":8192,"Another":8193,"128":8194,"Ġestimates":8195,"Ġepit":8196,"EV":8197,"**,":8198,"ipping":8199,"yan":8200,"Ġcontem":8201,"Ñİ":8202,"Ġpursu":8203,"life":8204,"Ind":8205,"Ġintention":8206,"FIG":8207,"Ġ1997":8208,"eting":8209,"Ġcomposite":8210,"Ġmatters":8211,"Ġexpensive":8212,"ĠEU":8213,"ĠThursday":8214,"ĠApple":8215,"lectric":8216,"Ġargues":8217,"??":8218,"ĠNav":8219,"effect":8220,"Ġsegment":8221,"Manager":8222,"Ġtit":8223,"ontal":8224,"Ġsuc":8225,"Ġgrown":8226,"ĠSk":8227,"Ġblow":8228,"Ġdropped":8229,"Ġzone":8230,"rapeutic":8231,"inite":8232,"oung":8233,"media":8234,"ĠVirgin":8235,"Ġcities":8236,".</":8237,"ĠCount":8238,"chron":8239,"ORD":8240,"sen":8241,"Ġclosely":8242,"Ġbaseline":8243,"ĠProgram":8244,"ĠBack":8245,"Ġbodies":8246,"Ġscientific":8247,"clear":8248,"Ġwear":8249,"Start":8250,"Ġfloat":8251,"Ġclar":8252,"Ġ54":8253,"ĠNone":8254,"Ġsimult":8255,"ogenesis":8256,"conf":8257,"zer":8258,"Ġokay":8259,"Hey":8260,"uled":8261,"Ġfet":8262,"neg":8263,"Ġfont":8264,"Every":8265,"Ġexceed":8266,"Ġlegisl":8267,"seud":8268,"assert":8269,"aneously":8270,"ĠSociety":8271,"Ġhonest":8272,"equiv":8273,"Ġwarn":8274,"ĠÐ¼":8275,"Ġdisput":8276,"riev":8277,"Ġwww":8278,"Ġriver":8279,"HS":8280,"ĠCopyright":8281,"Ġrequirement":8282,"Ġasym":8283,"CTION":8284,"ulating":8285,"Ġspeaking":8286,"sd":8287,"Ġboys":8288,",_":8289,"pert":8290,"ĠJustice":8291,"Ġresponsibility":8292,"Ġemission":8293,"III":8294,"inte":8295,"bridge":8296,"theless":8297,"acket":8298,"SON":8299,"ĠJones":8300,"ributions":8301,"Ġestate":8302,"ĠHy":8303,"rac":8304,"Ġhundreds":8305,"ĠMinister":8306,"enu":8307,"Ġobservation":8308,"ni":8309,"Ġdangerous":8310,"Â½":8311,"Ġrid":8312,"Ġdefic":8313,"mL":8314,"Ġcollabor":8315,"Ļª":8316,"Ġ51":8317,"400":8318,"Ġdisappe":8319,"Ġamounts":8320,"Ġwindows":8321,"Property":8322,"Ġbeam":8323,"Ġchart":8324,"Ġdesire":8325,"isters":8326,"umer":8327,"ĠWednesday":8328,"missions":8329,"Ġprovision":8330,"Ġpractices":8331,"Ġsick":8332,"Ġsheet":8333,"Ġblocks":8334,"pet":8335,"Ġexplore":8336,"ĠInformation":8337,"buf":8338,"Ġplaintiffs":8339,"Ġplain":8340,"uum":8341,"Ġnoticed":8342,"fonts":8343,"Ġouter":8344,"ĠChild":8345,"Î¬":8346,"outs":8347,"Ġstructural":8348,"Ġterminal":8349,"ĠMount":8350,"Ġconsumption":8351,"DNA":8352,"Ð½Ð¾":8353,"Ġautomatically":8354,"Ġseed":8355,"wer":8356,"ĠMel":8357,"ĠED":8358,"ĠÎ²":8359,"Ġfunding":8360,"Ġoch":8361,"Ġcards":8362,"ĠArab":8363,"Ġoverl":8364,"ĠPH":8365,"Ġexamination":8366,"ĠĠĠĠĠĠĠĠĠĠĠĠĠĠĠĠĠĠĠĠĠĠĠĠĠĠĠĠĠĠĠĠĠĠĠĠĠĠĠĠĠĠĠĠĠĠĠĠĠĠĠĠĠĠĠĠĠĠĠĠĠĠĠĠĠĠĠĠĠĠĠĠĠĠĠĠĠĠĠĠĠĠĠĠĠĠĠĠĠĠĠĠĠĠĠĠ":8367,"ĠRoman":8368,"Ġacadem":8369,"LO":8370,"ĠBas":8371,"Ġlic":8372,"\"),":8373,"Ġintra":8374,"ĠFre":8375,"ĠMethod":8376,"Ġsuccessfully":8377,"Come":8378,"ÂĤ":8379,"bel":8380,"Ġglucose":8381,"next":8382,"Ġassistance":8383,"Ġkick":8384,"ĠBet":8385,"Ġfer":8386,"His":8387,"eper":8388,"rehens":8389,"Ġdrawn":8390,"Ġpig":8391,"Ġproportion":8392,"})\\":8393,"noon":8394,"ĠDev":8395,"Thank":8396,"Ġoffense":8397,"std":8398,"Ġdiabetes":8399,"minimal":8400,"sup":8401,"ĠSocial":8402,"Ġlig":8403,"Ġwriter":8404,"afe":8405,"Ġnegot":8406,"Ġoffset":8407,"Ġemployment":8408,"Ġviolation":8409,"display":8410,"Ġske":8411,"Ġconsists":8412,"Ġsolve":8413,"Ġfinish":8414,"BM":8415,"apache":8416,"ĠStand":8417,"mann":8418,"odds":8419,"-(":8420,"Ġsuddenly":8421,"Ġstem":8422,"scrib":8423,"Ġjustice":8424,"Ġvivo":8425,"img":8426,"Ġpu":8427,"Although":8428,"čĊĠĠĠĠĠ":8429,"ira":8430,"sg":8431,"Ġinnov":8432,"rl":8433,"Ġpreced":8434,"Ġ101":8435,"ĠJim":8436,"ĠReview":8437,"ona":8438,"Ġ1996":8439,"Ġfigures":8440,"Ġarrang":8441,"ĠCharles":8442,"Ġseeking":8443,"Ġaudience":8444,"Number":8445,"rible":8446,"Ġvon":8447,"Ġexperiences":8448,"ĠIsland":8449,"ĠWho":8450,"Ġsignificance":8451,"Ġ_{":8452,"Right":8453,"json":8454,"Because":8455,"Ġcars":8456,"Ġmargin":8457,"Ġreform":8458,"Ġpoll":8459,"ĠPy":8460,"Ġmilk":8461,"ĠEst":8462,"âĢĶâĢĶ":8463,"Ġveget":8464,"Ġsky":8465,"Ġsensor":8466,"Gu":8467,"Ġspaces":8468,"friend":8469,"Ġlen":8470,"Ġembed":8471,"Ġsenior":8472,"inates":8473,"tab":8474,"ĠPCR":8475,"Br":8476,"Ġcausing":8477,"*/":8478,"ĠGrand":8479,"Ġsubt":8480,"Ġpit":8481,"Us":8482,"Ġvast":8483,"Det":8484,"ĠpH":8485,"Ġlift":8486,"Ġsomewhat":8487,"ĠFile":8488,"fit":8489,"Ġbias":8490,"Ġreducing":8491,"Rem":8492,"Ġalign":8493,"Ð¾Ð¼":8494,"Note":8495,"vin":8496,"Ġsupplement":8497,"ao":8498,"flu":8499,"ĠDu":8500,"}},":8501,"NN":8502,"Ġapparently":8503,"AY":8504,"Ġnerv":8505,"Ġcompound":8506,"ãģ¾":8507,"writ":8508,"Ġho":8509,"Ġneurons":8510,"Ġhurt":8511,"Ġcu":8512,"ifts":8513,"Ġbrown":8514,"prote":8515,"ication":8516,"control":8517,"Î¿Ïħ":8518,"Ġrecommended":8519,"unit":8520,"Ġinitially":8521,"ĠMur":8522,"Ġsupports":8523,"avel":8524,"Ġintegrated":8525,"VD":8526,"ĠFed":8527,"Ġfamous":8528,"uint":8529,"ighter":8530,"ĊĊĠĠĠĠĠĠĠĠĠĠĠĠĠĠĠĠĠĠĠĠĠĠĠĠĠĠĠĠĠĠĠĠ":8531,"Ġacting":8532,"west":8533,"ensus":8534,"zing":8535,"erior":8536,"').":8537,"Ġdamages":8538,"igan":8539,"Ġpractical":8540,"ductor":8541,"Ġarmy":8542,"Ġelectrical":8543,"Spec":8544,"template":8545,"Ġclients":8546,"Ġdelivered":8547,"ivated":8548,"000000":8549,"iscuss":8550,"Ġaccounts":8551,"Ġvul":8552,"Ġmic":8553,"Ġatmosp":8554,"Ġpairs":8555,"Ġprimarily":8556,"message":8557,"prop":8558,"BD":8559,"]^.":8560,"Ġdepos":8561,"Ġimagine":8562,"ĠLand":8563,"Ġcompact":8564,"png":8565,"Ãĳ":8566,"Ġfing":8567,"Ġremoval":8568,"Ġtargets":8569,"urally":8570,"Ġinternet":8571,"Ġcoffee":8572,"OH":8573,"Ġkitchen":8574,"Ġturning":8575,"Ġsubset":8576,")|":8577,"Ġsmile":8578,"status":8579,"ĠTem":8580,"kes":8581,"uable":8582,"ados":8583,"oder":8584,"æĸ":8585,"Ġweather":8586,"}|":8587,"Content":8588,"Ġpromote":8589,"erman":8590,"Ġlocations":8591,"obe":8592,"ĠJava":8593,"Ġaid":8594,"Ġdesk":8595,"ĠSpe":8596,"Ġtells":8597,"Ġrender":8598,"rot":8599,"2007":8600,"2006":8601,"documentclass":8602,"Ġ[[":8603,"find":8604,"Ġresearchers":8605,"dat":8606,"Ġthermal":8607,"ĠCOM":8608,"Ġâī":8609,"Ġrepresentative":8610,"mediate":8611,"Ġhotel":8612,"Ġfighting":8613,"Psi":8614,"ictor":8615,"Ġsugar":8616,"rif":8617,"Good":8618,"hab":8619,"Ġsurg":8620,"align":8621,"Ġprincipal":8622,"vol":8623,"${":8624,"ysym":8625,"ĠAtl":8626,"null":8627,"Ġflight":8628,"Ġdescribes":8629,"dec":8630,"}\\,":8631,".-":8632,"aft":8633,"zo":8634,"Ġdiscretion":8635,"Ġinhibition":8636,"Before":8637,"module":8638,"Ġpropag":8639,"Ġclosest":8640,"MM":8641,"Ġamazing":8642,"Ġgender":8643,"atural":8644,"ĠCamp":8645,"haust":8646,"Ġhet":8647,"æĪ":8648,"Ġmechanical":8649,"ĠLee":8650,"Ġdisplayed":8651,"Ġoptimal":8652,"Ġenhanced":8653,"high":8654,"ati":8655,"scr":8656,"ted":8657,"Ġdust":8658,"Ġstages":8659,"Char":8660,"ĠArmy":8661,"Ġconcerning":8662,"Other":8663,"olecules":8664,"Ġmonitoring":8665,"Ġperspective":8666,"ĠRoad":8667,"Ġpump":8668,"Ġadopted":8669,"Ġpolitics":8670,"iological":8671,"Ġsir":8672,"ĊČ":8673,"Ġ53":8674,"El":8675,"iki":8676,"ĠBob":8677,"Ġfeedback":8678,"ĠIF":8679,"Point":8680,"SO":8681,"ĠMath":8682,"Ġera":8683,"Ġbought":8684,"Ġinvolves":8685,"Ġ99":8686,"Ġspr":8687,"Ġcoach":8688,"Ġfant":8689,"Ġinfo":8690,"Last":8691,"ĠProte":8692,"Net":8693,"Ġlies":8694,"Ġalgebra":8695,"ĠMartin":8696,"}{-":8697,"lang":8698,"his":8699,"ĠYOU":8700,"**(":8701,"Ġsurrounding":8702,"cean":8703,"Ġrepair":8704,"orts":8705,"Ġorganic":8706,"Ġstrains":8707,"ĠMedical":8708,"Ġdram":8709,"nut":8710,"ĠÐ½Ð°":8711,"ĠSign":8712,"Ġhadn":8713,"search":8714,"ĠSO":8715,"Ġok":8716,"gener":8717,"LR":8718,"ĠEqu":8719,"Ġmanage":8720,"Ġminimal":8721,"hydro":8722,"Ġextends":8723,"ĠFire":8724,"ista":8725,"ĠBE":8726,"Ġja":8727,"\\*\\*":8728,"setlength":8729,"John":8730,"Ġcomo":8731,"Ġchick":8732,"oston":8733,"wered":8734,"lines":8735,"Ġdemocr":8736,"ellar":8737,"Ġantibodies":8738,"ĠRo":8739,"ĠLos":8740,">(":8741,")+":8742,"Ġdeploy":8743,"Ġdual":8744,"greek":8745,"Ġlaun":8746,"Ġregister":8747,"Ġbigger":8748,"sensors":8749,"widehat":8750,"Ġseg":8751,"wa":8752,"ĠLemma":8753,"Ġrecon":8754,"ĠWilliams":8755,"ĠNon":8756,"creen":8757,"Ġpromot":8758,"Ġprofession":8759,"Ġsnow":8760,"Ġhidden":8761,"Ġwed":8762,"aks":8763,"stat":8764,"Ġuncertain":8765,"FO":8766,"*^":8767,"Ġbehaviour":8768,"ĠMcC":8769,"Ġwrt":8770,"Ġescape":8771,"summary":8772,"weet":8773,"Ġsector":8774,"ups":8775,"Ġfly":8776,"inating":8777,"client":8778,"Ġcontainer":8779,"liament":8780,"Ġlots":8781,"ĠAv":8782,"Ġcarrying":8783,"ĠRepublican":8784,"Ð±":8785,"Ġwealth":8786,"Ġcoupling":8787,"Ġsubs":8788,"Ġanyway":8789,"omething":8790,"ĠÐ·":8791,"Ġnu":8792,"]$":8793,"Ġpurs":8794,"ĠMuslim":8795,"amsmath":8796,"ĠWall":8797,"Ġbear":8798,"ĠHuman":8799,"ĠUs":8800,"Ġhabit":8801,"Ð¾Ð´":8802,"Ġstone":8803,"Ġsuf":8804,"ila":8805,"unte":8806,"amss":8807,"inux":8808,"Ġresidents":8809,"Ġdelet":8810,"Ġexplanation":8811,"}^{(":8812,"Ġhorse":8813,"Po":8814,"endants":8815,"Ġconstructed":8816,"ws":8817,"Ġspatial":8818,"ensed":8819,"amssymb":8820,"bsy":8821,"Ã¼r":8822,"Ġsoil":8823,"some":8824,"rsfs":8825,"mathrsfs":8826,"Ġinjection":8827,"Ġcontro":8828,"ĠIra":8829,"ffff":8830,"byte":8831,"amsfonts":8832,"WH":8833,"People":8834,"Ġtumors":8835,"Ġmaintained":8836,"Ġabsolutely":8837,"Ġlowest":8838,"æĺ":8839,"ĠCath":8840,"Ġnewsp":8841,"amsbsy":8842,"Ġrent":8843,"QU":8844,"Ġcharacteristic":8845,"Ġinstitution":8846,"Ġweekend":8847,"([":8848,"Ġvide":8849,"Ġcoast":8850,"ĠOffic":8851,"args":8852,"eling":8853,"riers":8854,"Ġchapter":8855,"values":8856,"Ġplanet":8857,"wasysym":8858,"upgreek":8859,"Ġyellow":8860,"ĊĊĊĊĊ":8861,"Ġru":8862,"idemargin":8863,"Ġmetast":8864,"oddsidemargin":8865,"Ġflux":8866,"Ġcreation":8867,"Ġrational":8868,"Ġpicking":8869,"Ġsad":8870,"entry":8871,"ĠAcc":8872,"ICE":8873,"Ġmedian":8874,"Ġdriven":8875,"Ġ1995":8876,"aze":8877,"Button":8878,"Ġdebate":8879,"context":8880,"ayers":8881,"Ġdeclared":8882,"ori":8883,"Ġclock":8884,"CV":8885,"Ġmail":8886,"Ġorganizations":8887,"called":8888,"Ġcrisis":8889,"Ġtasks":8890,"Version":8891,"Ġ\"\\":8892,"ema":8893,"ĠHospital":8894,"008":8895,"Ġamino":8896,"Ġgrew":8897,"Ġdiscovery":8898,"isa":8899,"abb":8900,"Ag":8901,"DB":8902,"Ġremote":8903,"util":8904,"ĠSenate":8905,"ABLE":8906,"Ġodd":8907,"Ġmenu":8908,"ĠJersey":8909,"allow":8910,"Ġban":8911,"Ġweapons":8912,"Ġ---":8913,"ĠPower":8914,"Did":8915,"Ġdollars":8916,"Ġol":8917,"Ġyouth":8918,"Ġstrange":8919,"ishment":8920,"Ġdeaths":8921,"âĢĺ":8922,"Ġdetermining":8923,"ĊĊĠĠ":8924,"Ġoriginally":8925,"Ġcultural":8926,"Controller":8927,"Ġisland":8928,"Ġidentical":8929,"Base":8930,"Ġstead":8931,"Eng":8932,"Ġwest":8933,"Ġsuperior":8934,"ĠOld":8935,"foot":8936,"ĠPet":8937,"ĊĠĠĠĠĠĠĠĠĠĠĠĠĠĠĠĠĠ":8938,"achment":8939,"Â®":8940,"Ġevident":8941,"Sm":8942,"Ġemergency":8943,"Ġclassical":8944,"ova":8945,"ĠMaybe":8946,"orters":8947,"ald":8948,"ĠCL":8949,"ali":8950,"irable":8951,"Ġfro":8952,"Ġdinner":8953,"Ġaccordance":8954,"Ġsurve":8955,"Ġknowing":8956,"Ġprompt":8957,"iana":8958,"ÑĨ":8959,"uv":8960,"astern":8961,"cers":8962,"Ġbars":8963,"ĠHenry":8964,"Ġdifferential":8965,"Ġrealize":8966,"ĠTim":8967,"150":8968,"2001":8969,"009":8970,"ĠNE":8971,"quare":8972,"Client":8973,"uster":8974,"omatic":8975,"Ġ59":8976,"Ġshop":8977,"Ġbind":8978,"Ġrecognition":8979,"Input":8980,"Post":8981,"Ġdisorder":8982,"Ġbinary":8983,"Ġwinter":8984,"ĠMexico":8985,"Ġ57":8986,"Ġmask":8987,"ĠAPI":8988,"Ġemotional":8989,"match":8990,"Ġimmediate":8991,"Ġ\\>":8992,"Ġwine":8993,"Ġprevalence":8994,"Off":8995,"BE":8996,"onents":8997,"Ġapopt":8998,"Ġsports":8999,"ĠWood":9000,"Âµ":9001,"Ġrect":9002,"Ġcloud":9003,"AF":9004,"rium":9005,"Ġpreparation":9006,"Ġimplemented":9007,"Ġfinds":9008,"ĠSir":9009,"Ġlaugh":9010,"Ġpreferred":9011,"\\]),":9012,"Ġbio":9013,"css":9014,"Ġextend":9015,"ĠNever":9016,"Action":9017,"isting":9018,"Ġcontributions":9019,"Ġment":9020,"Ġpromise":9021,"fections":9022,"Ġdivision":9023,"Script":9024,".âĢĻ":9025,"ĠÎº":9026,"show":9027,"Gl":9028,"ĠEduc":9029,"////////////////":9030,"ATA":9031,"Dr":9032,"Ġinequ":9033,"rons":9034,"Ġepisode":9035,"icate":9036,"Ġcalc":9037,"Ġog":9038,"uan":9039,"DM":9040,"Ġsed":9041,"ĠSecurity":9042,"anna":9043,"Ġforming":9044,"Ġwatched":9045,"reatment":9046,"Ġexcited":9047,"Ġcategories":9048,"IE":9049,"ĠExt":9050,"à®":9051,"Ġenemy":9052,"Ġafternoon":9053,"Ġrespective":9054,"ometimes":9055,"Ġtrend":9056,"Ġargue":9057,"ĠChief":9058,"Ġauthorities":9059,"Ġthor":9060,"Check":9061,"ĠThree":9062,"Ġworst":9063,"Ġsynthesis":9064,"ĠHome":9065,"nc":9066,"ĠJeff":9067,"Ġseparated":9068,"Ġflo":9069,"strong":9070,"Ġhelping":9071,"ĠFil":9072,"Ġtaste":9073,"Ġhomes":9074,"Ġregression":9075,"è¿":9076,"Ġhypothesis":9077,"Ġdiameter":9078,"Ġchest":9079,"ÑĪ":9080,"Phys":9081,"Ġvit":9082,"terior":9083,"Ġrapidly":9084,"ĠDC":9085,"there":9086,"iatric":9087,"Ġobviously":9088,"Ġopportunities":9089,"Ġtip":9090,"Ġessentially":9091,"Ġye":9092,"rolled":9093,"Ġcircle":9094,"Ġdogs":9095,"Ġ1000":9096,"Ġconsequences":9097,"Ġspending":9098,"Ġsuspect":9099,")]":9100,"ĠANY":9101,"010":9102,"nger":9103,"Ġtotally":9104,"ĠSoftware":9105,"bro":9106,"ĠJournal":9107,"ĠYet":9108,"bu":9109,"Rel":9110,"Ġcorrectly":9111,"lie":9112,"lements":9113,"Ġfraud":9114,"otypes":9115,"Ġvertical":9116,"Ġmob":9117,"everal":9118,"Ġ\\{":9119,"PM":9120,"Ġeating":9121,"Å¾":9122,"Ġargued":9123,"fraid":9124,"expected":9125,"Ġgenome":9126,"Ġancient":9127,"Ġpathways":9128,"before":9129,"Ġmeat":9130,"number":9131,"property":9132,"Ġ58":9133,"Ġpowers":9134,"Ġmarketing":9135,"1000":9136,"Ġterrit":9137,"Ġgift":9138,"iser":9139,"Ġultimately":9140,"bles":9141,"Ġgast":9142,"Ġcentre":9143,"ãģĭ":9144,"Pat":9145,"split":9146,"ĠBY":9147,"Dec":9148,"DC":9149,"android":9150,"Ġnm":9151,"even":9152,"ipt":9153,"Ġtheoret":9154,"ĠAdditionally":9155,"Ġoperators":9156,"Ġoffering":9157,"ĠÑĢ":9158,"Ġ96":9159,"Ġclassification":9160,"sche":9161,"Ġperipher":9162,"Ġexecutive":9163,"Ġ400":9164,"ĠCup":9165,"Ġneighborhood":9166,"Ġ2020":9167,"ĠMult":9168,"Ġscal":9169,"Ġanswers":9170,"Ġdenote":9171,"rition":9172,"ĠControl":9173,"Ġpin":9174,"power":9175,"Ġ1980":9176,"Result":9177,"MB":9178,"umes":9179,"ĠView":9180,"Ġcandidates":9181,"Ġdiffer":9182,"Ġfinger":9183,"Ġexamine":9184,"Ġcro":9185,"sign":9186,"Ġfacilities":9187,"CIT":9188,"Ġcurves":9189,"Ġfurn":9190,"Ġfeels":9191,"fd":9192,"Ġbuildings":9193,"Ġpip":9194,"Ġmutations":9195,"blog":9196,"Ġ110":9197,"Ġshel":9198,"anol":9199,"Ġafraid":9200,"ÎŃ":9201,"2005":9202,"Ġsurgical":9203,"ĠObject":9204,"yst":9205,"Ġtemperatures":9206,"Ġincred":9207,"vas":9208,"Ø¯":9209,"Ġassign":9210,"}+\\":9211,"Ġpermission":9212,"Ġshoulder":9213,"Ġeigen":9214,"ochond":9215,"ĠJul":9216,"ĠĠĠĠĠĠĠĠĠĠĠĠĠĠĠĠĠĠĠĠĠĠĠĠĠĠĠĠ":9217,"Ċĉĉĉĉĉĉ":9218,"ĠHaw":9219,"Ġassault":9220,"Ĥ¬":9221,"ĠPlan":9222,"ĠProv":9223,"iden":9224,"Supplementary":9225,"}/":9226,"center":9227,"Äħ":9228,"rants":9229,"Ġcapture":9230,"ĠRT":9231,"++)":9232,"ĠHT":9233,"ige":9234,"Ġsyndrome":9235,"Ġneutral":9236,"Ġhate":9237,"ĠThose":9238,"Ġprinciples":9239,"ĠSU":9240,"Ġyounger":9241,"Su":9242,"si":9243,"Ġlegs":9244,"ÐµÐ»":9245,"utch":9246,"ourse":9247,"yles":9248,"ĠPan":9249,"output":9250,"Ġsupra":9251,"Ġinqu":9252,"Ġaside":9253,"ĠIraq":9254,"Ġcarefully":9255,"inson":9256,"]);":9257,"Ġintelligence":9258,"Ġtransformation":9259,"Ġsubmitted":9260,"Bu":9261,"***":9262,"ircraft":9263,"Ġcrystal":9264,"Ġsoc":9265,"Ġeast":9266,"Ġposted":9267,"Frame":9268,"ĠLib":9269,"ĠPut":9270,"Ġscreening":9271,"idents":9272,"pdf":9273,"ĠIC":9274,"ĠWITH":9275,"GET":9276,"Ġfruit":9277,"ĠÂ»":9278,"Okay":9279,"Ġtherapeutic":9280,"oir":9281,"Ġrefused":9282,"Ġcoc":9283,"Ġexhaust":9284,"Ġremind":9285,"Ġacquired":9286,"anish":9287,"card":9288,"lymp":9289,"tax":9290,"spe":9291,"Handler":9292,"Ġrecover":9293,"rat":9294,"Ġedges":9295,"Ġreserv":9296,"isely":9297,"Ġupdated":9298,"Next":9299,"Ġsucceed":9300,"Ġbiom":9301,"Mon":9302,"Ġraw":9303,"ned":9304,"uma":9305,"DP":9306,"ĠGeorg":9307,"Ġdrag":9308,"Ġpublication":9309,"125":9310,"Ġrain":9311,"erk":9312,"qquad":9313,"SYS":9314,"Ġlogic":9315,"][@":9316,"Ġposts":9317,"Ġchamber":9318,"iva":9319,"Ġcarcin":9320,"Cons":9321,"OB":9322,"ador":9323,"Ġsurprise":9324,"ski":9325,"they":9326,"Ġradical":9327,"Ġ85":9328,"Ġfault":9329,"arser":9330,"ĠDivision":9331,"GT":9332,"nic":9333,"]\"":9334,"fill":9335,"Ġalive":9336,"ZE":9337,"Results":9338,"Ġbusinesses":9339,"Ġwra":9340,"PCR":9341,"obj":9342,"ãĤĮ":9343,"asts":9344,"Ġiniti":9345,"Ġalk":9346,"method":9347,"Ġ\\*":9348,"Ġkinds":9349,"illy":9350,"Ġcommittee":9351,"Ġ1994":9352,"Ġplanned":9353,"oxy":9354,"ped":9355,"ester":9356,"Ġsod":9357,"Ġdisorders":9358,"Ġourselves":9359,"ĠDie":9360,"Ġmaintenance":9361,"Ġincidence":9362,"Ġfaces":9363,"Ġsomewhere":9364,"aved":9365,"ĠCall":9366,"Ġhappening":9367,"Ġcrack":9368,"Ġhelpful":9369,"Ġcounts":9370,"Ġorth":9371,"Ġgest":9372,"ĠThanks":9373,"Ġassumption":9374,"Ġbroke":9375,"Ġbattery":9376,"Ob":9377,"Ġpapers":9378,"Ġrotation":9379,"avas":9380,"Ġcov":9381,"ĠRock":9382,"ĠVirginia":9383,"Ġwonderful":9384,"Pa":9385,"lar":9386,"two":9387,"Ã©n":9388,"Ġgall":9389,"amente":9390,"ifer":9391,"ĠAma":9392,"Create":9393,"ĠLake":9394,"cribed":9395,"Ġwearing":9396,"iox":9397,"Ġtopic":9398,"iro":9399,"Ġtube":9400,"Ġnormally":9401,"ĠCS":9402,"ĠHot":9403,"Ġaggreg":9404,"Ġasc":9405,"Ġspectra":9406,"onia":9407,"Ġcontents":9408,"Ġvehicles":9409,"Ġrib":9410,"Ġdiscover":9411,"Ġreader":9412,"treated":9413,"Ġein":9414,"Ġserving":9415,"Ġ:)":9416,"Ġprohib":9417,"ĠAcadem":9418,"Ġsurfaces":9419,"ĠAnt":9420,"ĠCheck":9421,"ĠName":9422,"Ġmas":9423,"ĠCapt":9424,"Ùĩ":9425,"Ġsuppose":9426,"icide":9427,"2004":9428,"NC":9429,"har":9430,"Ġapplying":9431,"ASE":9432,"Ã¡n":9433,"Ġconversion":9434,"Ġattempts":9435,"server":9436,"00000":9437,"idential":9438,"Ġinfer":9439,"Ġinsulin":9440,"Ġ&\\":9441,"Ġnurs":9442,"ĠØ§ÙĦ":9443,"Ġrecognize":9444,"Ġmoral":9445,"oids":9446,"ĠChristmas":9447,"loc":9448,"Ġcopyright":9449,"Ġmanip":9450,"when":9451,"Ġdepression":9452,"Ġjourney":9453,"mond":9454,"rene":9455,"bound":9456,"Ġregime":9457,"OOST":9458,"Ġrose":9459,"ĠCanadian":9460,"ĠEV":9461,"Ġtranscription":9462,"EXT":9463,"OCK":9464,"ãĥ³":9465,"dem":9466,"Ġpatent":9467,"Ġextensive":9468,"\"}),":9469,"ĠColor":9470,"||":9471,"Ġcontrovers":9472,"Ġpresum":9473,"attering":9474,"scill":9475,"Ġinjuries":9476,"Ġsharp":9477,"Ġgel":9478,"leep":9479,"ARR":9480,"Ġcomprehens":9481,"Ġsymbol":9482,"ĠOS":9483,"private":9484,"xiety":9485,"Ġabandon":9486,"Ġproliferation":9487,"rolog":9488,"ĠServices":9489,"rh":9490,"Ġhistorical":9491,"Hel":9492,"Ġtransferred":9493,"}}^{":9494,"ĠLo":9495,"%),":9496,"Ke":9497,"Ġdos":9498,"mathsf":9499,"]]":9500,"Ġroles":9501,"åľ":9502,"Status":9503,"Ġmoments":9504,"COM":9505,"Ġversions":9506,"Ġfacility":9507,"Ġboost":9508,"home":9509,"emia":9510,"Ġbegins":9511,"ĠÐ±":9512,"gence":9513,"ĠHamilton":9514,"ĠAppellant":9515,"ogether":9516,"250":9517,"fortunately":9518,"Ġrequested":9519,"ologic":9520,"Ġ66":9521,"ĠIg":9522,"ruption":9523,"ĠSecretary":9524,"Ġdas":9525,"olid":9526,"ĠÏĥ":9527,"Ġwheel":9528,"ĠĠĠĠĠĠĠĠĠĠĠĠĠĠĠĠĠĠĠĠĠĠĠĠĠĠĠĠĠ":9529,"Ġacids":9530,"ĠAri":9531,"Ġsituations":9532,"ĠInterest":9533,"NAME":9534,"ĠCorp":9535,"Ġfiber":9536,"Ġcrowd":9537,"neq":9538,"ĠHistory":9539,"Ġcomplicated":9540,"ĠLabor":9541,"Ġthickness":9542,"ĠEll":9543,"Ġtrib":9544,"Mat":9545,"Ġenzyme":9546,"Ġride":9547,"Ġleadership":9548,"Ġteaching":9549,"Ġsizes":9550,"enter":9551,"Ġintegration":9552,"Ġacknowled":9553,"ĠJewish":9554,"Ġnam":9555,"Ġartist":9556,"Ġextreme":9557,"Ġcrucial":9558,"mode":9559,"enger":9560,"Ġreads":9561,"ortion":9562,"gypt":9563,"ACE":9564,"ĠBest":9565,"ĠrÃ©":9566,"Ġintroduce":9567,"isor":9568,"UI":9569,"Ġstands":9570,"attr":9571,"Ġbacteria":9572,"Ġsongs":9573,"pop":9574,"Ġanswered":9575,"Ġcorrelated":9576,"Ġdegrad":9577,"Ġgather":9578,"anted":9579,"anner":9580,"Ġengaged":9581,"orne":9582,"ĠClub":9583,"Even":9584,"erry":9585,"Ġmarkers":9586,"ÂĢ":9587,"essions":9588,"Ġperforming":9589,"Ġincreasingly":9590,"ican":9591,"ibilities":9592,"1999":9593,"Ġreligion":9594,"Ġsemicon":9595,"estion":9596,"float":9597,"Ġguidelines":9598,"ĠMean":9599,"Ġshooting":9600,"Ġproducing":9601,"Response":9602,"Ġcav":9603,"Ġsuffered":9604,"estival":9605,"Ã¤r":9606,"elly":9607,"Ġreporting":9608,"Ġconviction":9609,"Ġapproval":9610,"ĠBefore":9611,"aylor":9612,"ĠEs":9613,"}^\\":9614,"Ġdirectory":9615,"Ġinstruct":9616,"Ġsubstantially":9617,"ĠPac":9618,"Ġath":9619,"irus":9620,"iem":9621,"Load":9622,"Ġ--------------------------------":9623,"appoint":9624,"frast":9625,"Ġsharing":9626,"request":9627,"Ġreliable":9628,"onder":9629,"Ġtrigger":9630,"Ġowned":9631,"uting":9632,"Ġcounty":9633,"ĠpÃ¥":9634,"ventions":9635,"2019":9636,"STR":9637,"Ð°Ðº":9638,"inical":9639,"sequently":9640,"ĠBritain":9641,"Ġlean":9642,"Ġblind":9643,"Ġgrade":9644,"Ġsoldiers":9645,"Ġfairly":9646,"ECT":9647,"Ïĩ":9648,"ĠPolice":9649,"apes":9650,"ĠGL":9651,"Ġ63":9652,"Ġlens":9653,"LECT":9654,"Ġ*)":9655,"ĠAmong":9656,"Ġpermit":9657,"ĊĠĠĠĠĠĠĠĠĠĠĠĠĠĠ":9658,"acer":9659,"ĠClinton":9660,"ÅŁ":9661,"ĠMicrosoft":9662,"dx":9663,"Ġsolar":9664,"Ġconsole":9665,"aret":9666,"coin":9667,"Ġperfectly":9668,"Default":9669,"(*":9670,"een":9671,"Ġsubsequently":9672,"FOR":9673,"Ġillegal":9674,"Override":9675,"Ġsport":9676,")),":9677,"Ġconscious":9678,"agues":9679,"Ġcircul":9680,"Layout":9681,"Max":9682,"Ġwet":9683,"\"]":9684,"Conne":9685,"Ġurl":9686,"Ð¾Ð³":9687,"itar":9688,"append":9689,"Ac":9690,"ĠBoston":9691,"Ġtreatments":9692,"Ġadvoc":9693,"Ġequally":9694,"ĠCorpor":9695,"oured":9696,"Ġcognitive":9697,"ĠOrder":9698,"Ġadjacent":9699,"áº":9700,"Ġchose":9701,"ĠOper":9702,"bul":9703,"Ġencoding":9704,"THE":9705,"Ġresc":9706,"Mar":9707,"Stat":9708,"Ġsilver":9709,"Ġseparation":9710,"Ġaddressed":9711,"tyle":9712,"URL":9713,"Ġpurchased":9714,"ĠErr":9715,"ĠMedic":9716,"Ġimper":9717,"asi":9718,"terday":9719,"Ġ$(\\":9720,"root":9721,"alty":9722,"Ġ1993":9723,"256":9724,"Ġmoves":9725,"Ġleague":9726,"Ġbridge":9727,"ĠMen":9728,"Ġcere":9729,"Ġteacher":9730,"ĠKorea":9731,"Ġwarning":9732,"Ġboat":9733,"ãģ£":9734,"ĠÎµ":9735,"click":9736,"\"\"":9737,"ĊĠĠĠĠĠĠĠĠĠĠĠĠĠĠĠĠĠĠĠĠĠĠĠĠĠĠĠĠĠĠĠ":9738,"Ġforest":9739,"stack":9740,"Ġ62":9741,"NU":9742,"Ġbringing":9743,"ilib":9744,"ende":9745,"Ġ1992":9746,"Ġillness":9747,"fin":9748,"nergy":9749,"ĠRam":9750,"ĠDevelopment":9751,"0000000000000000":9752,"2003":9753,"ĠCarolina":9754,"ĠAngeles":9755,"Ġmethyl":9756,"Ġpresentation":9757,"unicip":9758,"aph":9759,"Ġrequests":9760,"Ġcontroller":9761,"ouch":9762,"Ġalpha":9763,"Ġmanifest":9764,"ĠAff":9765,"Ġneglig":9766,"Ġhybrid":9767,"Web":9768,"Ġalloc":9769,"attice":9770,"ĠVis":9771,"Ġoscill":9772,"Ġinstruction":9773,"ĠCare":9774,"Ġmagnitude":9775,"Ġdies":9776,"reams":9777,"AK":9778,"Ġliability":9779,"Ġng":9780,")}{":9781,"common":9782,"IES":9783,"urse":9784,"Ġindustrial":9785,"Ġsig":9786,"auge":9787,"Ġmillions":9788,"Ġpra":9789,"ĠDown":9790,"Ġ$[":9791,"---------":9792,"Ret":9793,"Ġfavour":9794,"Ġaudio":9795,"Ġteach":9796,"âĶ":9797,"Ġcompat":9798,"Ġfee":9799,"have":9800,"LD":9801,"ĠÂµ":9802,"'$":9803,"Ġintel":9804,"Open":9805,"ĠJac":9806,"Ġsaved":9807,"Ġtort":9808,"Ġkilling":9809,"ĠIR":9810,"Ġinfected":9811,"Ġreviewed":9812,"second":9813,"IND":9814,"Like":9815,"ARE":9816,"{\"":9817,"yes":9818,"una":9819,"ynom":9820,"ĠMi":9821,"Filter":9822,"Ġanywhere":9823,"Ġordinary":9824,"Ġdifferentiation":9825,"Ġplenty":9826,"Ġmissed":9827,"Ġcolors":9828,"ĠmM":9829,"Tem":9830,"Ġarrested":9831,"addr":9832,"Ġuniversity":9833,"Ġdomestic":9834,"Ã´":9835,"Ġrein":9836,"Ġphr":9837,"Ġbeta":9838,"Ġnewly":9839,"ermine":9840,"Ġminister":9841,"ĠmiR":9842,"Ġentertain":9843,"will":9844,"ĠTre":9845,"Ġcomfortable":9846,"ĠMot":9847,"ä¸Ģ":9848,"Ġheads":9849,"pin":9850,"Ġquad":9851,"~,":9852,"[\"":9853,"Ġregistered":9854,"ĠJackson":9855,"ĠCard":9856,"ĠLast":9857,"Ġgrid":9858,"Ġsurprised":9859,"ammation":9860,"vals":9861,"Ġsimulation":9862,"Ġvaluable":9863,"nn":9864,"Find":9865,"Ġpassword":9866,"las":9867,"ĠLook":9868,"Ġpolym":9869,"ĠTop":9870,"Cor":9871,"avascript":9872,"scape":9873,"ĠDoes":9874,"zi":9875,"river":9876,"Ġspectral":9877,"Ġwinning":9878,"Ġfingers":9879,"Ġbrowser":9880,"ĠSpanish":9881,"_>":9882,"Ġelectrode":9883,"Ġbits":9884,"approx":9885,"century":9886,"lections":9887,"ĠItalian":9888,"Ġowners":9889,"ĠAppeals":9890,"ĠCast":9891,"Ġperiods":9892,"ĠProfess":9893,"gal":9894,"});":9895,"asty":9896,"]{}]{}":9897,"bet":9898,"Ġ61":9899,"Ġstorm":9900,"don":9901,"Ġcoupled":9902,"Ġgrounds":9903,"google":9904,"Ġviral":9905,"Ġpassion":9906,"Ġintegral":9907,"Ġhouses":9908,"utory":9909,"Ġblank":9910,"160":9911,"HR":9912,"ĠJoe":9913,"ĠRom":9914,"Also":9915,"razil":9916,"Ġattempted":9917,"ycl":9918,"Ġmedicine":9919,"ĠDemocratic":9920,"fficients":9921,"Ġcomposed":9922,"Ð³":9923,"perties":9924,"Ġbelief":9925,"Ġpermanent":9926,"Ġ$-":9927,"Ġcolumns":9928,"Ġlad":9929,"ught":9930,"Ġregional":9931,"Ġ68":9932,"ãģĨ":9933,"Ġconsequence":9934,"ĠDespite":9935,"Ġsimulations":9936,"note":9937,"Ġdedicated":9938,"Ġradius":9939,"ĠGR":9940,"ĠAustralian":9941,".;":9942,"Ġcontributed":9943,"Ġhydrogen":9944,"ĠSM":9945,"Äĩ":9946,"Ġunus":9947,"Ġgentle":9948,"ĠÃ¤":9949,"\\^":9950,"Ġinduction":9951,"Ġaircraft":9952,"]\\":9953,"Ġrooms":9954,"Ġadvent":9955,"Ġsuffering":9956,"Ġclusters":9957,"sur":9958,"mult":9959,"----------":9960,"Ġ67":9961,"ĠVictor":9962,"Ġlaboratory":9963,"ĠDirector":9964,"agnetic":9965,"Ġcutting":9966,"Ġreactions":9967,"Ġteeth":9968,"Ġrounded":9969,"ĠItaly":9970,"|-":9971,"Ġstrike":9972,"ĠSP":9973,"Ġdecade":9974,"inction":9975,"Ġsetup":9976,"Ġproud":9977,"Ġstroke":9978,"IGHT":9979,"Ġobst":9980,">,":9981,"ucks":9982,"ĠFind":9983,"edef":9984,"Ġcoron":9985,"Ġtruck":9986,"BO":9987,"Ġstatistics":9988,"Ġdiversity":9989,"020":9990,"exec":9991,"actic":9992,"Ġglad":9993,"Ġtransaction":9994,"ĠSar":9995,"-----------":9996,"Ġrepresenting":9997,"Ġbusy":9998,"$_":9999,"who":10000,"Ġinstitutions":10001,"Select":10002,"Ġprogression":10003,"Ġmodes":10004,"Ġmodify":10005,"description":10006,"Ġdisag":10007,"ctic":10008,"ĠSC":10009,"Ġtheorem":10010,"Ġgrab":10011,"Ġtheme":10012,"Ġclothes":10013,"2002":10014,"Ġreplied":10015,"Ġobserve":10016,"iginal":10017,"Ġsemi":10018,"Ġadverse":10019,"ĠAccordingly":10020,"Ġpossession":10021,"anche":10022,"ruptcy":10023,"nership":10024,"Ġdecay":10025,"Ġalert":10026,"urns":10027,"ĠKey":10028,"ĠModel":10029,"Ġentr":10030,"ĠĠĠĠĠĠĠĠĠĠĠĠĠĠĠĠĠĠĠĠĠĠĠĠĠĠĠĠĠĠĠ":10031,"hus":10032,"ĠMike":10033,"ĠAgain":10034,"alls":10035,"Ġec":10036,"ĠSpring":10037,"Ġiter":10038,"åĽ":10039,"Ġ-\\":10040,"ĠRoyal":10041,"ĠÃ®":10042,"idad":10043,"Ġstronger":10044,"isons":10045,"Ġsatisfied":10046,"ĠVan":10047,"chain":10048,"ĠAdminist":10049,"ictionary":10050,"ĠDonald":10051,"Ġpaying":10052,"iscussion":10053,"Ġpassage":10054,"Ġvolunte":10055,"Ġtiny":10056,"anny":10057,"ÄĻ":10058,"Ġproceedings":10059,"Ġtalked":10060,"ĠBlue":10061,"auss":10062,"Ġpel":10063,"Ġopposed":10064,"Ġprovisions":10065,"aration":10066,"Format":10067,"Ġvulner":10068,"Ġexperts":10069,"ĊĊĠĠĠĠ":10070,"Ġassist":10071,"ĠCOU":10072,"prot":10073,"Ġscenario":10074,"ÐµÐ¼":10075,"Ġparticipate":10076,"ĠTown":10077,"Ñĸ":10078,"endo":10079,"mut":10080,"duction":10081,"Ġsurprising":10082,"Ġaccommod":10083,"Ġtall":10084,"Ġfragment":10085,"regulated":10086,"Ġcoal":10087,"Ġlaid":10088,"ÛĮ":10089,"ĠJoseph":10090,"Ã«":10091,"agraph":10092,"Ġshouldn":10093,"Ġdependence":10094,"Ġdocumentation":10095,"Ġlaunched":10096,"Page":10097,"Ãµ":10098,"Ġhorm":10099,"Ġrom":10100,"Ġdimensions":10101,"Ġprofiles":10102,"Ġcrypt":10103,"Ġurban":10104,"(_":10105,"ilation":10106,"ĠCivil":10107,"Ġbomb":10108,"Ġstores":10109,"Ġwelcome":10110,"ĠTHIS":10111,"HA":10112,"Ġgran":10113,"ĠHD":10114,"ounder":10115,"ĠLab":10116,"Ġloan":10117,"yd":10118,"options":10119,"Ġ>=":10120,"Ġreviews":10121,"endar":10122,"Ġcopies":10123,"Ġstatistically":10124,"caps":10125,"ĠOhio":10126,"Ġmatches":10127,"Ġschedule":10128,"Ġuintptr":10129,"Ġregulations":10130,"Ã¨re":10131,"txt":10132,"Ġkiss":10133,"tx":10134,"ĠMs":10135,"Ġconform":10136,"Î®":10137,"Ġcorresponds":10138,"Ġchecked":10139,"Ġinflammatory":10140,"Ġdischarge":10141,"ropy":10142,"Ġaccused":10143,"header":10144,"ULT":10145,"\"}](":10146,"Ġkeys":10147,"Ġembry":10148,"Ġnearby":10149,"icul":10150,"iration":10151,"ĠRight":10152,"Ġbreaking":10153,"Ġselling":10154,"itan":10155,"ĠAttorney":10156,"Ġregardless":10157,"Ġoste":10158,"Ð¾ÑĢ":10159,"Ġmitochond":10160,"Ġbon":10161,"ĠOrgan":10162,"Ġchoices":10163,"Ġtrained":10164,"spring":10165,"ĠWomen":10166,"Ġmarkets":10167,"Ġvictory":10168,"Ġinvolvement":10169,"BB":10170,"Ġcalculate":10171,".^[@":10172,"Ġrows":10173,"ĠMuse":10174,"Ġcardiac":10175,"had":10176,"cit":10177,"Ġaver":10178,"frastructure":10179,"Ġcareful":10180,"Ġdifficulty":10181,"Ġpushed":10182,"Ġreceptors":10183,"world":10184,"}}}}":10185,"ĠFort":10186,"NR":10187,"=(":10188,"Ġplur":10189,"pres":10190,"arters":10191,"Ġsteel":10192,"Many":10193,"Ġoperate":10194,"ĠHE":10195,"Ġstreets":10196,"Ġintroduction":10197,"ĠCommon":10198,"PV":10199,"elihood":10200,"Gener":10201,"ĠĠĠĠĠĠĠĠĠĠĠĠĠĠĠĠĠĠĠĠĠĠĠĠĠĠĠĠĠĠ":10202,"ĠWater":10203,"CG":10204,"uer":10205,"Ġfed":10206,"ĠNext":10207,"ĠBit":10208,"minent":10209,"Ġwaves":10210,"ĠDaniel":10211,"Ġcontrary":10212,"ĠTrust":10213,"Ġprejud":10214,"osome":10215,"Ġthro":10216,"Ġsuscept":10217,"Ġexplo":10218,"employ":10219,"ultural":10220,"ĠPlay":10221,"Ġfails":10222,"ois":10223,"Ġ1991":10224,"Î´":10225,"stone":10226,"Ġgoods":10227,"Ġapartment":10228,"ĠYoung":10229,"Ġfract":10230,"iture":10231,"Ġtranslation":10232,"Ġcoefficient":10233,"Ġsemiconductor":10234,"Ġrobust":10235,"Ġbread":10236,"Ġcooper":10237,"amples":10238,"{-":10239,"Ġinvent":10240,"ĠLine":10241,"ĠSimilarly":10242,"orse":10243,"ĠBern":10244,"positive":10245,"Ġspecim":10246,"OK":10247,"Ġwal":10248,"Ġemphas":10249,"Red":10250,"ĠEgypt":10251,"Ġmomentum":10252,"ĠColumb":10253,"Ġtaught":10254,"Ġ250":10255,"Ġmeth":10256,"Ġadhes":10257,"Ġgreatly":10258,"~~~~":10259,"Ġpresents":10260,"Ġdrawing":10261,"Ġmanufacturing":10262,"Ġsustain":10263,"Ġopposition":10264,"Mem":10265,"Ġfacing":10266,"Ġbin":10267,"oly":10268,"Ä«":10269,"Ġcalculation":10270,"ande":10271,"inking":10272,"Ġingred":10273,"Ġcompliance":10274,"Ġstimulation":10275,"ÃŁ":10276,"Ġmad":10277,"Ġrepeat":10278,"Ġconstitutional":10279,"Work":10280,"ĠSi":10281,"uten":10282,"ynthe":10283,"ĠEducation":10284,"Str":10285,"ariable":10286,"Ġcarrier":10287,"Ġmoderate":10288,"Ġconnections":10289,"Min":10290,"isition":10291,"km":10292,"Ġkernel":10293,"Ġtechnologies":10294,"Tab":10295,"Î±Î¹":10296,"Ġflash":10297,"ĠGiven":10298,"Ġrestaurant":10299,"Ġcomputed":10300,"Ġcoefficients":10301,"Ġprobe":10302,"Ġlosing":10303,"sized":10304,"Ġefficacy":10305,"Ġstabil":10306,"Ġhardware":10307,"ĠNY":10308,"NOT":10309,"Ġguid":10310,"Ġreveal":10311,"Pi":10312,"ĠLight":10313,"Ġbrings":10314,"orial":10315,"ĠText":10316,"Ġevil":10317,"wan":10318,"anguages":10319,"molecules":10320,"Ġbasically":10321,"Ð°Ð²":10322,"Ġuniverse":10323,"#:":10324,"OF":10325,"such":10326,"Ġgarden":10327,"ĠAnalysis":10328,"Ġtea":10329,"Ġinfections":10330,"Ġ1970":10331,"Ġtab":10332,"Ġster":10333,"Ġarchitecture":10334,"ĠExper":10335,"ĠMake":10336,"GS":10337,"putation":10338,"Ġarbitrary":10339,"Most":10340,"Ġdecline":10341,"prise":10342,"Ġweren":10343,"Ġmigration":10344,"Ġprepare":10345,"ĠDid":10346,"Ġvictims":10347,"ĠConstitution":10348,"ĠFar":10349,"bas":10350,"Ġaccompan":10351,"ĠJon":10352,"likely":10353,"iano":10354,"Ġunw":10355,"Ġplug":10356,"Ġsubstance":10357,"ĠAuthor":10358,"ìĿ":10359,"Ġruling":10360,"ĠPs":10361,"ologist":10362,"Ġembod":10363,"Ġxml":10364,"mal":10365,"porary":10366,"Ġseriously":10367,"Ġbil":10368,"Child":10369,"ĠChapter":10370,"aterials":10371,"ĠLar":10372,"Ġextracted":10373,"Ġpursuant":10374,"Ġsymmetry":10375,"olly":10376,"Ġbutter":10377,"Ġsomehow":10378,"ĠKn":10379,"Ġserial":10380,"about":10381,"Ġapplies":10382,"Ġprivile":10383,"Ġthy":10384,"including":10385,"ĠSa":10386,"rig":10387,"Ġhonor":10388,"eld":10389,")}$":10390,"Ġusage":10391,"system":10392,"Vis":10393,"ĠSpecial":10394,"Ġanxiety":10395,"chem":10396,"ĠMD":10397,"ĠPers":10398,"Ġdiagnostic":10399,"Ġcrew":10400,"VAL":10401,"sys":10402,"Ġsummar":10403,"ĠOlymp":10404,"ailable":10405,"project":10406,"Ġremem":10407,"Ġchlor":10408,"Ð¹":10409,"Ġcrazy":10410,"eping":10411,"Ġreferences":10412,"avelength":10413,"Ġhung":10414,"ĠReal":10415,"Ġaffirm":10416,"Ġproposal":10417,"minus":10418,"ĠDate":10419,"aux":10420,"limits":10421,"oli":10422,"rosc":10423,"Ġcalculations":10424,"ĠBow":10425,"-------------":10426,"Ġlesions":10427,"Ġsending":10428,"HC":10429,"Ġexcluded":10430,"adata":10431,"Ġassets":10432,"Ġcontrad":10433,"reens":10434,"Ġanticip":10435,"Ġpregnancy":10436,"Ġwestern":10437,"Ġphotograph":10438,"uj":10439,"aba":10440,"reland":10441,"Ġintermediate":10442,"Ġthereof":10443,"ãģĵ":10444,"Ġ69":10445,"pie":10446,"ARD":10447,"Ġfeelings":10448,"ĠHarr":10449,"SET":10450,"ÑģÐº":10451,"Ġcomplexity":10452,"unning":10453,"Ġstaining":10454,"During":10455,"Ġtough":10456,"Ġcorporate":10457,"æĹ":10458,"upid":10459,"esome":10460,"Ġexit":10461,"Ġbat":10462,"Ġacet":10463,"Ġimplied":10464,"ĠLuc":10465,"opp":10466,"ĠAndroid":10467,"Ġsmoking":10468,"Ġpartners":10469,"ospit":10470,"Ġenforcement":10471,"Ġtaxes":10472,"uct":10473,"Ġsuppress":10474,":(":10475,"Ġheader":10476,"hemat":10477,"Ġtrick":10478,"Ġsufficiently":10479,"rivial":10480,"close":10481,"Ġ77":10482,"Ġweapon":10483,"Ġsimultaneously":10484,"600":10485,"Ġthirty":10486,"through":10487,"Ġliked":10488,"Ġsampling":10489,"bottom":10490,"Ġ$|":10491,"&&":10492,"forward":10493,"015":10494,"ĠAsia":10495,"ĠCase":10496,"Ġmeasuring":10497,"Ġmutant":10498,"Ġauthentic":10499,"Ġrisks":10500,"ĠCatholic":10501,"Phone":10502,"otox":10503,".$":10504,"Ġhide":10505,"Ġ98":10506,"Ġclassified":10507,"aron":10508,"athan":10509,"ĠJr":10510,"Ġcreates":10511,"ÐµÐ´":10512,"ĠMiddle":10513,"Link":10514,"Ġsatisfy":10515,"ĠBusiness":10516,"ĠYear":10517,"ĠWilson":10518,"--------------":10519,"Ġtargeted":10520,"Ġ78":10521,"Ġtrou":10522,"amond":10523,"years":10524,"Ġtheoretical":10525,"zero":10526,"inals":10527,"ĠÑĩ":10528,"element":10529,"Ġrevolution":10530,"uity":10531,"Ġprecisely":10532,"ĠHand":10533,"HD":10534,"iology":10535,"Ġposit":10536,"step":10537,"ĠLove":10538,"Ġtone":10539,"Ġanymore":10540,"%;":10541,"Ġelected":10542,"Ġregulatory":10543,"Ġham":10544,"ĠCross":10545,"Inst":10546,"Ġhier":10547,"ĠAmazon":10548,"Ġmistake":10549,"Ġcomplications":10550,"ogeneous":10551,"Ġprediction":10552,"ograp":10553,"Ġvideos":10554,"Ġdisclosed":10555,"iest":10556,"ĠOx":10557,"TYPE":10558,"Ã½":10559,"Ġbeer":10560,"asive":10561,"Ġactivated":10562,"axis":10563,"ĠNA":10564,"Ġretail":10565,"Ġrequiring":10566,"IX":10567,"ĠEth":10568,"Ġpartially":10569,"About":10570,"aka":10571,"formed":10572,"Ġvariations":10573,"Ġstir":10574,"Ġmutation":10575,"Ġannounce":10576,"UC":10577,"graph":10578,"Ġrear":10579,"gle":10580,"Ġgrass":10581,"Ġhook":10582,"Ġpseud":10583,"ĠSouthern":10584,"xc":10585,"Control":10586,"ĠTeam":10587,"Ġaer":10588,"Ġrefe":10589,"ILL":10590,"unct":10591,"Ġsear":10592,"ĠColl":10593,"Ġapoptosis":10594,"asant":10595,"onymous":10596,"Ġadequate":10597,"obs":10598,"ĠFA":10599,"nm":10600,"Ġmapping":10601,"Ġbands":10602,"Current":10603,"','":10604,"Ġloaded":10605,"Ġë":10606,"mathscr":10607,"Ġclassic":10608,"ĠURL":10609,"Sl":10610,"service":10611,"enny":10612,"ĠLie":10613,"ĠME":10614,"Ġleaf":10615,"Ġcorrection":10616,"msgid":10617,"Ġdealing":10618,"Ġsoci":10619,"ĠPT":10620,"á½":10621,"rams":10622,"Ġdomains":10623,"×ķ":10624,"ĠForce":10625,"umps":10626,"sch":10627,"Ġconsumer":10628,"fol":10629,"\\\"":10630,"nie":10631,"MENT":10632,"ĠBased":10633,"Ġexecution":10634,"255":10635,"///":10636,"Write":10637,"areness":10638,"wr":10639,"ansas":10640,"ĠEp":10641,"Buffer":10642,"ylvan":10643,"Ġwherein":10644,"ĠfÃ¶r":10645,"ĠSher":10646,"Ġtract":10647,"IME":10648,"Ġicon":10649,"Ġaged":10650,"msgstr":10651,"Ġlights":10652,"105":10653,"Ġadministrative":10654,"ĠPak":10655,"Ġnarr":10656,"Ġdiagram":10657,"Ġrenew":10658,"Ġpolynom":10659,"gage":10660,"WE":10661,"ĠHa":10662,"Ġconsiderable":10663,"ethe":10664,"Ġ\\-":10665,"Ġreaders":10666,"Ġtoken":10667,"Ġdistributions":10668,"Ġquantity":10669,"ĠGra":10670,"å°":10671,"åŃ":10672,"Ġbroadcast":10673,"ocard":10674,"Ġ74":10675,"Ġdrinking":10676,"Ġmachines":10677,"Ġinhibitor":10678,"à°":10679,"itrogen":10680,"123":10681,"ĠShow":10682,"Tex":10683,"Ġconce":10684,"Ġwithdraw":10685,"Ġcolour":10686,")))":10687,"WR":10688,"Ġmater":10689,"Ġlady":10690,"Ġhardly":10691,"Ġ97":10692,"800":10693,"Ġinflammation":10694,"Car":10695,"Ġunsigned":10696,"Ġroof":10697,"town":10698,"ĠNetwork":10699,"Ġelevated":10700,"ĠPage":10701,"Ġnumerical":10702,"Ġmarker":10703,"types":10704,"Ġdoct":10705,"package":10706,"Ġtur":10707,"ĠDR":10708,"Ġtrace":10709,"Ġ..":10710,"Ġbulk":10711,"Ø§Ø":10712,"Mode":10713,"è¡":10714,"Ġprogramming":10715,"ĠMaster":10716,"acts":10717,"Ġfifth":10718,"Ġmagic":10719,"mean":10720,"aire":10721,"Ġpulse":10722,"Ġrely":10723,"Ġentity":10724,"ĠFROM":10725,"ĠHR":10726,"Ġincubated":10727,"pool":10728,"olars":10729,"Ġnotion":10730,"ĠNov":10731,"ĠRay":10732,"ificate":10733,"Ġzu":10734,"ĠAmendment":10735,"Ġexhibit":10736,"Ġshit":10737,"×Ļ":10738,"Ġbacterial":10739,"reement":10740,"Ð¸Ñı":10741,"ĠIM":10742,"earing":10743,"Ġdirections":10744,"leton":10745,"Ġnaturally":10746,"nament":10747,"ported":10748,"Ġtil":10749,"reason":10750,"Ġfemales":10751,"Ver":10752,"Ġinterior":10753,"Ġdialog":10754,"acity":10755,"Once":10756,"Her":10757,"oprote":10758,"Ġmetabolic":10759,"Ġpayments":10760,"Ġbeauty":10761,"Ġshares":10762,"ĠFrancisco":10763,"ĠKim":10764,"iratory":10765,"111":10766,"associ":10767,"Ġrefers":10768,"Ġkm":10769,"Cell":10770,"access":10771,"Ġrecom":10772,"Ġnamely":10773,"Ġlying":10774,"Ġcream":10775,"Âĥ":10776,"anim":10777,"}-\\":10778,"Ġhypert":10779,"Ġbirths":10780,"Ġcyl":10781,"ĠTechnology":10782,"Ġwound":10783,"ãĤĤ":10784,"lers":10785,"arse":10786,"usal":10787,"unsigned":10788,"}({\\":10789,"Ġmarg":10790,"Ġwhenever":10791,"Ġinval":10792,"Does":10793,"Ġmultip":10794,"ĠEngine":10795,"Ġmales":10796,"Ġprecise":10797,"Ġongoing":10798,"points":10799,"Ġflood":10800,"monary":10801,"Ġconsec":10802,"Ġfalling":10803,"Ġconstraints":10804,"ĠBOOST":10805,"Ġinduce":10806,"Ġ$\\{":10807,"PER":10808,"cludes":10809,"dest":10810,"ĠInit":10811,"Ġeen":10812,"Ġcytok":10813,"person":10814,"=\"#":10815,"Med":10816,"|^":10817,"Ġintake":10818,"Ġgang":10819,"Ġgenu":10820,"ĠDemocrats":10821,"Ġtroops":10822,"Ġatmosphere":10823,"ĠOK":10824,"Ġreserved":10825,"Init":10826,"Ġsubstit":10827,"Length":10828,"Ġswim":10829,"Ġundert":10830,"ocyte":10831,"ĠWay":10832,"alloc":10833,"pson":10834,"Ġsilence":10835,"Ġenerg":10836,"Ġtun":10837,"ĠReport":10838,"plet":10839,"tml":10840,"Ġlegislation":10841,"Ġperipheral":10842,"PAR":10843,"Ġartists":10844,"charg":10845,"Ġcaptured":10846,"untime":10847,"ĠGame":10848,"Dep":10849,"ĠFred":10850,"),\\":10851,"Down":10852,"Ġplates":10853,"Ġcable":10854,"Ġphosphory":10855,"Ġsettlement":10856,"Sch":10857,"URE":10858,"Ġskill":10859,"pression":10860,"Ġist":10861,"Ġgiant":10862,"Ġdrivers":10863,"Ġwhis":10864,"ĠGar":10865,"inois":10866,"ĠBrazil":10867,"Ġcomparable":10868,"ĠEnter":10869,"Ġinstances":10870,"Ġtomorrow":10871,"Ġriv":10872,"Ġliber":10873,"ĠOl":10874,"Ġmounted":10875,"}.$$":10876,"Ġfrequent":10877,"Ġmarks":10878,"abeth":10879,"ĠImage":10880,"Ġpartition":10881,"Ġreturning":10882,"Ġhandling":10883,"Ġdict":10884,"Ġveter":10885,"ochemical":10886,"ellee":10887,"ĠPS":10888,"Ġcoinc":10889,"acking":10890,"Ġintellect":10891,"Ġlists":10892,"Ġdataset":10893,"Ġamplitude":10894,"âĸ":10895,"Ġuniversal":10896,"amination":10897,"Ġoccas":10898,"Ġelig":10899,"Ġyeah":10900,"Ġstruck":10901,"Ġadjusted":10902,"onto":10903,"ÂłÂłÂłÂłÂłÂłÂłÂł":10904,"Ġbanks":10905,"ĠStan":10906,"Ġ76":10907,"bell":10908,"Ġkom":10909,"Ġarranged":10910,"Ġhang":10911,"FD":10912,"Ġuncon":10913,"ĠHon":10914,"Ġatoms":10915,"Ġdiscipl":10916,"Ġrenal":10917,"Ġfluct":10918,"Ġreward":10919,"Ġreaching":10920,"ilibrium":10921,"Ġcommunications":10922,"................":10923,"Ġreli":10924,"response":10925,"Ġobj":10926,"ĠMic":10927,"WS":10928,"ylvania":10929,"Ġorganized":10930,"device":10931,"Ġroutine":10932,"Ġloading":10933,"vs":10934,"Collect":10935,"Ġcontrolling":10936,"Ġindependently":10937,"hav":10938,"Ġcomparing":10939,"Ġfasc":10940,".]":10941,"iations":10942,"Ġrejected":10943,"offset":10944,"ĠValley":10945,"ATH":10946,"Ġcovers":10947,"Ġscientists":10948,"Second":10949,"\\}$":10950,"Ġcomprom":10951,"Ġteachers":10952,"Ġbench":10953,"ĠFather":10954,"Ġdivide":10955,"Ġinher":10956,"Ġou":10957,"Ġstuck":10958,"Ð¸Ð½":10959,"æķ":10960,"Ġcompensation":10961,"Ġexcit":10962,"ustration":10963,"iol":10964,"ĠÂłÂł":10965,"ĠSov":10966,"Ġabnormal":10967,"%).":10968,"Finally":10969,"Ġlegit":10970,"Ġmagnet":10971,"Ġresponded":10972,"bool":10973,"Options":10974,"Î¸":10975,"filter":10976,"Ġlattice":10977,"ĠFund":10978,"stra":10979,"uality":10980,"ĠâĢ¢":10981,"hard":10982,"Ġcovering":10983,"oi":10984,"Build":10985,"Ġstations":10986,"TD":10987,"Row":10988,"inition":10989,"Ġaux":10990,"GO":10991,"metric":10992,"Ġcreative":10993,"Oper":10994,"Ġsulf":10995,"ioned":10996,"ques":10997,"vector":10998,"Mult":10999,"Ġrising":11000,"Ġ88":11001,"empty":11002,"wart":11003,"infl":11004,"ĠChris":11005,"Ġdoors":11006,"Ġagencies":11007,"Ġjoy":11008,"ĠIreland":11009,"Ġdance":11010,"Ġ===":11011,"icht":11012,"days":11013,"éĢ":11014,"Ġscan":11015,"conduct":11016,"Ġmere":11017,"gressive":11018,"Output":11019,"pad":11020,"buffer":11021,"ĠFox":11022,"connect":11023,"Ġyields":11024,"017":11025,"iry":11026,"Ġserves":11027,"Param":11028,"ĠPE":11029,"ĠMuseum":11030,"ovascular":11031,"Ġdisappoint":11032,"Ġomitted":11033,"opath":11034,"Ġlob":11035,"Ġmatching":11036,"ãĤī":11037,"HL":11038,"Ġvariance":11039,"ĠSwed":11040,"åĬ":11041,"Ġstom":11042,"Ġ\\|":11043,"bled":11044,"cule":11045,"Ġcultures":11046,"Ġ<=":11047,")*(-":11048,"ĠElect":11049,"Ġdecreasing":11050,"Ġsouthern":11051,"}\\\\":11052,"ĠConne":11053,"ĠToday":11054,"ĠNumber":11055,"Ġabsorption":11056,"Ġvalve":11057,"emic":11058,"Ġbytes":11059,"Ġinjured":11060,"Mark":11061,"ĠRod":11062,"{(":11063,"Ġyesterday":11064,"ĠSix":11065,"Ġprivacy":11066,"Ġdestroyed":11067,"PG":11068,"elve":11069,"Ġcraft":11070,"Ġacademic":11071,"Ġtrav":11072,"ĠStart":11073,"Ġmathemat":11074,"Ġcohort":11075,"rin":11076,"Ġanalyt":11077,"Ġthorough":11078,"Ġdiscrimination":11079,"Ġmetabolism":11080,"Ġnerve":11081,"Ġ130":11082,"ĠDM":11083,"ĠBa":11084,"Ġ73":11085,"Ġcomprehensive":11086,"Ġsuffer":11087,"ĠIl":11088,"Ġprospect":11089,"orses":11090,"Ġpron":11091,"hire":11092,"plus":11093,"Ġrestricted":11094,"fix":11095,"Ġsingular":11096,"ĠVersion":11097,"Ġtank":11098,"Ġdecom":11099,"Ġ71":11100,"ĠBuild":11101,"Ġattribute":11102,"azz":11103,"Ġcited":11104,"Ġ94":11105,"osity":11106,"conomic":11107,"}_\\":11108,"Ġshr":11109,"ĠÎ´":11110,"pu":11111,"izz":11112,"Ġlawyer":11113,"ĠAndrew":11114,"Ġdiverse":11115,"Ġsignature":11116,"Listener":11117,"Ġexplicitly":11118,"Ġthinks":11119,"ĠSpace":11120,"Ġgalaxies":11121,"112":11122,"fi":11123,"Ġ(âĢľ":11124,").$$":11125,"ĠDar":11126,"Ġmountain":11127,"Ġ84":11128,"irk":11129,"Ġchallenging":11130,"Resource":11131,"Ġmild":11132,"isp":11133,"Ġbehalf":11134,"ĠScot":11135,"Ġimproving":11136,"plan":11137,"Ġ125":11138,"Arg":11139,"Ġcheap":11140,"Ġexplos":11141,"Block":11142,"make":11143,"ĠLew":11144,"ONE":11145,"Dev":11146,"ĠPoint":11147,"Ġprogn":11148,"week":11149,"Ġchicken":11150,"Ġ}\\":11151,"ctx":11152,"eman":11153,"ORE":11154,"Ġlunch":11155,"iar":11156,"may":11157,"Ġinsu":11158,"Ġ1989":11159,"Ġappointed":11160,"Ġvoters":11161,"ARY":11162,"Ġdeclare":11163,"Ġedition":11164,"&#":11165,"onom":11166,"Ġemployer":11167,"vy":11168,"hol":11169,"Ġvascular":11170,"Ġtape":11171,"dig":11172,"Maybe":11173,"hetic":11174,"ele":11175,"irms":11176,"Ġvessel":11177,"urd":11178,"mediated":11179,"Ġstruggle":11180,"update":11181,"Ġfewer":11182,"Description":11183,"Ġnorthern":11184,"nsylvania":11185,"ĠPL":11186,")$$":11187,"Â¥":11188,"ĠSat":11189,"opes":11190,"Ġapproximation":11191,"rose":11192,"Ġsevent":11193,"Ġclosing":11194,"ĠCarl":11195,"ĠEnt":11196,"Â¼":11197,"Token":11198,"olester":11199,"```":11200,"atre":11201,"ĠConf":11202,"Ġaimed":11203,"Ġgauge":11204,"angers":11205,"ordan":11206,"bits":11207,"Ġhasn":11208,"eneath":11209,"Sign":11210,"Ġfool":11211,"Ġpharmac":11212,"aver":11213,"Ġloud":11214,"Ġincorporated":11215,"ĠChampionship":11216,"Ġnervous":11217,"ologically":11218,"Ġcust":11219,"Ġapps":11220,"Em":11221,"stic":11222,"Ġwavelength":11223,"Ġfired":11224,",$$":11225,"ĠBon":11226,"ublished":11227,"istical":11228,"Addition":11229,"ificial":11230,"Ġlips":11231,"Ġplurality":11232,"rele":11233,"NP":11234,"Ġmodification":11235,"104":11236,"ĠThank":11237,"ĠAward":11238,"Update":11239,"files":11240,"ĠPerhaps":11241,"Use":11242,"Ġdiagnosed":11243,"130":11244,"Case":11245,"ĠNC":11246,"Ġherein":11247,"Ġinclusion":11248,"Ġintrac":11249,"API":11250,"Ġconsisting":11251,"Ġdeviation":11252,"ĠWalk":11253,"Ð¾Ð½":11254,"Instance":11255,"kind":11256,"Ġorientation":11257,"Ġbirds":11258,"ĊĠĠĠĠĠĠĠĠĠĠĠĠĠĠĠĠĠĠĠĠĠĠĠĠĠĠĠĠĠĠĠĠĠĠĠĠĠĠĠĠĠĠĠĠĠĠĠĠĠĠĠĠĠĠĠĠĠĠĠĠĠĠĠĠ":11259,"ĠBu":11260,"ĠMedia":11261,"site":11262,"Ġtelephone":11263,"Ġ92":11264,"Ġrum":11265,"ĠSpain":11266,"Ġupdates":11267,"ĠComput":11268,"ĠPass":11269,"itÃ©":11270,"rained":11271,"ĠEmp":11272,"Ġ79":11273,"ĠTaylor":11274,"Ġcum":11275,"estinal":11276,"ĠResults":11277,"Ġbuying":11278,"Ġbasket":11279,"adi":11280,"Ġsmoke":11281,"Ġpleasure":11282,"hs":11283,"Ġtransplant":11284,"Ġtemporary":11285,"Ġpitch":11286,"Ġ89":11287,"ĠKen":11288,"Ġchip":11289,"eties":11290,"ĠComm":11291,"ĠCorporation":11292,"Ġimposed":11293,"sql":11294,"ictions":11295,"Ġlistening":11296,"Ġ1983":11297,"white":11298,"ĠBush":11299,"Ġvertex":11300,"orous":11301,"aska":11302,"oving":11303,"Ġheavily":11304,"Ġallegations":11305,"ĠGreek":11306,"Ġinnoc":11307,"materials":11308,"---------------":11309,"neum":11310,"ensor":11311,"ĠMichigan":11312,"Ġstatutory":11313,"cb":11314,"uri":11315,"aland":11316,"Ġinfrastructure":11317,"Ġpocket":11318,"Ġmovies":11319,"Ġresolve":11320,"Ġadds":11321,"ĠBR":11322,"019":11323,"}[":11324,"ĠWat":11325,"ĠDavis":11326,"Ġsel":11327,"Ġproduces":11328,"Ġeducational":11329,"Ġteen":11330,"Ġalgorithms":11331,"Ġ111":11332,"102":11333,"None":11334,"Ġ],":11335,"Ġmagazine":11336,"Ġstupid":11337,"push":11338,"Ġadmission":11339,"fire":11340,"Ġ115":11341,"ttp":11342,"aws":11343,"Ġenjoyed":11344,"istence":11345,"Ġfluorescence":11346,"Ġconsumers":11347,"Ġagric":11348,"stable":11349,"Ġdelete":11350,"necess":11351,"ĠManagement":11352,"Ġreduces":11353,"ĠNJ":11354,"Ġ**(":11355,"Ġelsewhere":11356,"Ġkeeps":11357,"Ġdominant":11358,"Ġadvantages":11359,"ĠAge":11360,"Ġbranc":11361,"DI":11362,"Ġgenerating":11363,"ĠHard":11364,"ĠÂ¶":11365,"jpg":11366,"Ġengineering":11367,"Ġinequality":11368,"Ġsettled":11369,"Ġfaced":11370,"Ġsmiled":11371,"ĠDetermine":11372,"holder":11373,"ĠAbout":11374,"Ġengage":11375,"Ð»Ð¸":11376,"./":11377,"<\\":11378,"uits":11379,"ĠChem":11380,"Ġfrequencies":11381,"ijer":11382,"Ġholes":11383,"Ġdebut":11384,"Top":11385,"!'":11386,"Further":11387,"Ġvectors":11388,"adel":11389,"Ġreflected":11390,"Ġrural":11391,"Ġbarrier":11392,"180":11393,"Ġ>>":11394,"ĠLibrary":11395,"RNAs":11396,"Ġovercome":11397,",{\\":11398,"ĠInvest":11399,"advant":11400,"Ġsees":11401,"prov":11402,"ĠDesign":11403,"oned":11404,"Ġexecuted":11405,"Ġdesirable":11406,"Ð°Ð¼":11407,"Ġenabled":11408,"Ġtracks":11409,"ĠMusic":11410,"owa":11411,"ĠGall":11412,"awa":11413,"iley":11414,"ĠAcademy":11415,"ĠMiller":11416,"Ġmeta":11417,"Ġfounded":11418,"idal":11419,"Ġ87":11420,"annot":11421,"Ġexplains":11422,"should":11423,"ogenous":11424,"sv":11425,"Ġspokes":11426,"etch":11427,"eh":11428,"ĠFood":11429,"ĠMajor":11430,"Ġyards":11431,"itudes":11432,"Ġappreciate":11433,"rell":11434,"ĠÄ":11435,"Ġmovements":11436,"Ġ83":11437,"Ġcontinuing":11438,"amps":11439,"ĠNorthern":11440,"Ġ($\\":11441,"}^{-":11442,"ĠRog":11443,"Style":11444,"ĠUser":11445,"worth":11446,"Ġconfront":11447,"Ġcha":11448,"ĠDescription":11449,"Ġreceiver":11450,"Ġfriendly":11451,"Ġneural":11452,"uid":11453,"Ġ93":11454,"ibration":11455,"âĶĢ":11456,"čĊĉĉ":11457,"Ġpermitted":11458,"Ġarrangement":11459,"Ġprinted":11460,"Ġtack":11461,"Ġproven":11462,"Ġroots":11463,"Â¸":11464,"Ġroughly":11465,"=-":11466,"Ġhospit":11467,"'),":11468,"imental":11469,"Ġmirror":11470,"ãĤĬ":11471,"ĠThough":11472,"ĊĊĠĠĠĠĠĠĠĠĠĠĠĠĠĠĠ":11473,"Ġadmit":11474,"IVE":11475,"Bo":11476,"Ġgut":11477,"Ġnose":11478,"ĠPalest":11479,"Ġdecor":11480,"issions":11481,"Ġmeal":11482,"Ġconstantly":11483,"ARRANT":11484,"Ġ82":11485,"ĠGO":11486,"sn":11487,"Ġimpair":11488,"ĠKingdom":11489,"Ġinvasion":11490,"ounced":11491,"014":11492,"Label":11493,"1998":11494,"Ġparticipation":11495,"Ġscales":11496,"pref":11497,"gel":11498,"Access":11499,"NET":11500,"rosis":11501,"Ġelder":11502,"ĠMain":11503,"ĠProposition":11504,".),":11505,"Ġintervals":11506,"Prov":11507,"prod":11508,"Ġdismissed":11509,"Ġresolved":11510,"Ġ1988":11511,"Ñī":11512,"Ġlanguages":11513,"Ġconverted":11514,"ijn":11515,"Ġconservative":11516,"endix":11517,"izabeth":11518,"Ġfalls":11519,"Ġnodded":11520,"sex":11521,"Ã©t":11522,"Ġhoping":11523,"Ġscheduled":11524,"Ġterrible":11525,"Ġprofit":11526,"viously":11527,"Stud":11528,"Ġinhibitors":11529,"Ġbelieves":11530,"UST":11531,"Ġfolder":11532,"ENSE":11533,"clip":11534,"ĠRh":11535,"Ap":11536,"rients":11537,"Ident":11538,"Ġpeptide":11539,"Ġbounded":11540,"Ġunlikely":11541,"Ġdetermin":11542,"ĠIllinois":11543,"full":11544,"Ġnewspaper":11545,"imp":11546,"Ġ\\;":11547,"yg":11548,"shift":11549,"Ġtunn":11550,"ĠPacific":11551,"kit":11552,"Ġunusual":11553,"Ġcache":11554,"Ġshout":11555,"Ġdenomin":11556,"Ġstrings":11557,"dagger":11558,"Ġsilent":11559,"Ġphenomenon":11560,"ĠJews":11561,"Only":11562,"Ġmais":11563,"Ġbutt":11564,"ĠWARRANT":11565,"ĠDig":11566,"ibraries":11567,"Ġpersonnel":11568,"Ġvoc":11569,"Ġpilot":11570,"ĠLittle":11571,"emed":11572,"Ġviewed":11573,"Ġdoctors":11574,"internal":11575,"ĠLow":11576,"ĠCur":11577,"Ġvisited":11578,"Ġduplic":11579,"Ġappell":11580,"Ġ91":11581,"BT":11582,"Ġretire":11583,"United":11584,"esides":11585,"bial":11586,"Thread":11587,"ĠBell":11588,"Ġell":11589,"Non":11590,"Ġhorizontal":11591,"Function":11592,"Ġmanual":11593,"ĠIrish":11594,"Ġwriters":11595,"Ġscrew":11596,"appy":11597,"Ġbeach":11598,"Ġ114":11599,"!âĢĿ":11600,"Ġconflic":11601,"ĠCurrent":11602,"ĠRa":11603,"Ġinterrupt":11604,"Ġpreserv":11605,"Ġtonight":11606,"Ġdish":11607,"ariate":11608,"Ġantigen":11609,"Ġattended":11610,"oplus":11611,"Ġ86":11612,"ĠScient":11613,"Ġcomprising":11614,"Ġdeeply":11615,"vm":11616,"Ġparas":11617,"Ġ+/-":11618,"Ġtren":11619,"whel":11620,"Ġresist":11621,"Ġeggs":11622,"oves":11623,"Ġopinions":11624,"Ġcoordinates":11625,"ĠQueen":11626,"ĠLocal":11627,"Ïį":11628,"column":11629,"Ġfunc":11630,"Ġ112":11631,"uated":11632,"enda":11633,"Ġbowl":11634,"ĠPennsylvania":11635,"Ġconvenient":11636,"Ġdisturb":11637,"Ġvariants":11638,"ĠCell":11639,"ĠEL":11640,"ĠHarry":11641,"ologists":11642,"ACT":11643,"Ġcodes":11644,"Ð½Ñĭ":11645,"Ġeverybody":11646,"Ġuncertainty":11647,"ĠAsian":11648,"Ġcolleagues":11649,"Ġprofessor":11650,"Ġonset":11651,"Ġforever":11652,"Ġlosses":11653,"etr":11654,"ATED":11655,"Ġoperated":11656,"Ġavailability":11657,"acon":11658,"*]{},":11659,"Ġmanufacturer":11660,"Ġrecru":11661,"Ġfel":11662,"etics":11663,"underline":11664,"example":11665,"ĠTake":11666,"ĠEnergy":11667,"anz":11668,"'\\":11669,"Ġcalcium":11670,"Ġterr":11671,"Ġpriority":11672,"cus":11673,"ishop":11674,"ĠInte":11675,"Ġeverywhere":11676,"Â´":11677,"ĠConsider":11678,"Ġ81":11679,"construction":11680,"ĠApplication":11681,"Ġdemands":11682,"ĠHTML":11683,"Ġindirect":11684,"Ġpowder":11685,"Port":11686,"Ġinterference":11687,"oplasm":11688,"Ġscored":11689,"Ġhousehold":11690,"Ġtrail":11691,"Ġcock":11692,"Project":11693,"Ġpartnership":11694,"Ġpersonally":11695,"aceut":11696,"ulator":11697,"ĠSQL":11698,"Ġimprovements":11699,"Ġspons":11700,"Âº":11701,"Ġaccompanied":11702,"Ġstrip":11703,"ĠStill":11704,"green":11705,"STAT":11706,"ĠStudies":11707,"ERV":11708,"Ġdiver":11709,"pered":11710,"commun":11711,"pot":11712,"Ġscattering":11713,"Ġprovider":11714,"master":11715,"016":11716,"Ġregularly":11717,"Ġjet":11718,"Ġcig":11719,"urable":11720,"Ġhealthcare":11721,"herence":11722,"Ġkinase":11723,"ĠRest":11724,"Ġphilosophy":11725,"Acc":11726,"rying":11727,"Ġgay":11728,"ĠCEO":11729,"Pointer":11730,"icing":11731,"Ġentering":11732,"Deb":11733,"Ġbless":11734,"Ġtu":11735,"ÄĽ":11736,"ĠYeah":11737,"ĠValue":11738,"Ġfailing":11739,"Ġprocessed":11740,"Ġcaption":11741,"Ġwireless":11742,"Ġquantitative":11743,"menu":11744,"dam":11745,"ĠTurn":11746,"Factory":11747,"Ġbatt":11748,"osomes":11749,"Under":11750,"lot":11751,"ĠPatent":11752,"Ġfunny":11753,"Attribute":11754,"Ġcombat":11755,"ĠÂ°":11756,"ĠError":11757,"ĠBase":11758,"Ġdear":11759,"Ġworldwide":11760,"ijerph":11761,"Ġlipid":11762,"textbf":11763,"Ġrarely":11764,"Ġ(%)":11765,"^,":11766,"sto":11767,"ĠÑĥ":11768,"Ġcompeting":11769,"Ġwake":11770,"Mc":11771,"hm":11772,"Ġaz":11773,"Ġupt":11774,"ĠMir":11775,"Have":11776,"MAX":11777,"anto":11778,"Ġfusion":11779,"ĠArray":11780,"Ġmamm":11781,"Ġrevenue":11782,"Ġconve":11783,"Ġgradient":11784,"={":11785,"ulty":11786,"Ġrice":11787,"Ġangry":11788,"Ġstayed":11789,"Ġsteady":11790,"ĠTrue":11791,"Ġseparately":11792,"Ġtiming":11793,"Art":11794,"Ġinspired":11795,"irection":11796,"evin":11797,"è¦":11798,"eff":11799,"oped":11800,"Ġstudio":11801,"VM":11802,"Ġ113":11803,"door":11804,"family":11805,"Sum":11806,"Ġdesigns":11807,"Ġpetitioner":11808,"Ġships":11809,"Ġdivisor":11810,"Ġtheories":11811,"background":11812,"Ġconclusions":11813,"ogl":11814,"jections":11815,"cies":11816,"ĠSteve":11817,"Ġtrem":11818,"Ġportions":11819,"alling":11820,"Ġignore":11821,")_":11822,"ika":11823,"ĠHo":11824,"æī":11825,"vance":11826,"Ġfur":11827,"dl":11828,"Three":11829,"ĠSon":11830,"Ġdipl":11831,"Ġbeneath":11832,"ĠTri":11833,"Ġhepat":11834,"Each":11835,"145":11836,"Ġutility":11837,"OG":11838,"ĠGlobal":11839,"Ġsynchron":11840,"Ġmasses":11841,"Ġverdict":11842,"illance":11843,"ĠEvent":11844,"Ġcommitment":11845,"Ġexpanded":11846,"making":11847,"Ġmaintaining":11848,"went":11849,"Ġaffects":11850,"Ġsomebody":11851,"ĠAF":11852,"Ġexclusive":11853,"Ġuma":11854,"Ġswit":11855,"Ġ140":11856,"Ġconcrete":11857,"shot":11858,"subseteq":11859,"OUR":11860,"blue":11861,"ĠMid":11862,"Ġpaths":11863,"ĊĊĉĉ":11864,"ĠEastern":11865,"Ġturb":11866,"store":11867,"Ġtired":11868,"ä¹":11869,"outer":11870,"Ġlect":11871,"Ġcalm":11872,"Left":11873,"Ġsys":11874,"ĠSaint":11875,"Ġratios":11876,"ĠRub":11877,"Ġages":11878,"*~*":11879,"Ġconspir":11880,"Ġsurvive":11881,"Ġlateral":11882,"ĠRepublicans":11883,"Ġanch":11884,"bral":11885,"Using":11886,"isen":11887,"################":11888,"Ġawareness":11889,"ere":11890,"Ġoxide":11891,"è¯":11892,"Ġkil":11893,"Ġrecur":11894,"Ġcompute":11895,"Ġshook":11896,"\\>":11897,"Ġrespiratory":11898,"Ġdial":11899,"inth":11900,"Ġmaxim":11901,"yo":11902,"ĠHig":11903,"Ġprominent":11904,"Ġencourage":11905,"ãĤ¹":11906,"Configuration":11907,"ÎµÎ¹":11908,"Ġmodules":11909,"Ùģ":11910,"ILITY":11911,"Ġsodium":11912,"ĠUk":11913,"Ġathlet":11914,"hu":11915,"ĠCaptain":11916,"usr":11917,"textrm":11918,"Ġabundance":11919,"Ġremoving":11920,"omorphism":11921,"anti":11922,"ryst":11923,"Ġworried":11924,"DD":11925,"ĠMR":11926,"Ġsubmit":11927,"Location":11928,"Ġacquisition":11929,"olving":11930,"pton":11931,"Ġmalign":11932,"Ġtemporal":11933,"ĠSea":11934,"Ġmetall":11935,"aki":11936,"bow":11937,"ĠAC":11938,"Ġawarded":11939,"Ġguns":11940,"nan":11941,"Ġprelim":11942,"Ġcycles":11943,"127":11944,"Ġtrading":11945,"Ġchildhood":11946,"Ġembr":11947,"changed":11948,"Ġparad":11949,"being":11950,"ĠFL":11951,"Ð¶":11952,"ometer":11953,"quot":11954,"ĠRos":11955,"black":11956,"Ġcoat":11957,"ĠBal":11958,"Ġdegradation":11959,"Ġvarying":11960,"ĠGNU":11961,"hour":11962,"INS":11963,"Ġadministered":11964,"Ġproviders":11965,"Ġinfinite":11966,"equal":11967,"ĠThrough":11968,"}}$.":11969,"thread":11970,"regulation":11971,"Ġwashed":11972,"oline":11973,"`,":11974,"ĠFollowing":11975,"Ġgray":11976,"Ġimmunity":11977,"ĠCook":11978,"ĠPolicy":11979,"ĠSn":11980,"aza":11981,"complete":11982,"Ġdiscussions":11983,"vironments":11984,"eras":11985,"ĠCambridge":11986,"ĠBrook":11987,"Ġease":11988,"REG":11989,"Ġmunicip":11990,"Ġprinting":11991,"Ġ1960":11992,"Ð°Ð·":11993,"Ġbottle":11994,"ĠTour":11995,"Ġextraction":11996,"Ġpasses":11997,"ĠCas":11998,"à¤¾":11999,"Ġabstract":12000,"insic":12001,"]{.":12002,"å¾":12003,"Ġdens":12004,"Ð¾Ð¹":12005,"Ġvice":12006,"Ġreject":12007,"ĠPhot":12008,"}}}$":12009,"âĢĶ\"":12010,"Ġwrites":12011,"Ġsimilarly":12012,"Ġclim":12013,"Ġdeleg":12014,"ĠSus":12015,"Ev":12016,"ĠResp":12017,"ĠWT":12018,"Ġsubjected":12019,"hot":12020,"Server":12021,"ĠGi":12022,"address":12023,"layer":12024,"Ġdispute":12025,"Ġentries":12026,"ĠLes":12027,"Ptr":12028,"Ġsli":12029,"ĠEffect":12030,"Ġ{{":12031,"Ġ1987":12032,"Ġ119":12033,"Ġ160":12034,"Ġaccumulation":12035,"Builder":12036,"phy":12037,"ÅĽ":12038,"ĠSA":12039,"bot":12040,"agan":12041,"adium":12042,"Ġcord":12043,"Ġattitude":12044,"ĠCustom":12045,"ĠHun":12046,"ocolate":12047,"olesterol":12048,"ĠWis":12049,"Ġhaz":12050,"ĠCru":12051,"Ġreasonably":12052,"âĢĵâĢĵ":12053,"ĠAB":12054,"Ġphysics":12055,"018":12056,"Ġaltered":12057,"Ġflying":12058,"Ġsurge":12059,"Ġ),":12060,",$":12061,"aussian":12062,"ĠnÃ£o":12063,"ĠViet":12064,"Ġaden":12065,"agram":12066,"Ġmedi":12067,"SQL":12068,"five":12069,"erated":12070,"ĠDa":12071,"Ġhorses":12072,"Ġdecreases":12073,"onical":12074,"Ġautomatic":12075,"Ġinvalid":12076,"ĠFamily":12077,"pay":12078,"wall":12079,"Ġsystematic":12080,"parse":12081,"}]":12082,"Ġcompetitive":12083,"anded":12084,"Ġgeometry":12085,"Ġtalks":12086,"Ġadvertising":12087,"ĠSeveral":12088,"Ġexpressions":12089,"Hello":12090,"Ġcomprises":12091,"Command":12092,"Ġdestination":12093,"ĠGeorgia":12094,"Ġpatch":12095,"ĠLtd":12096,"inch":12097,"Ġrefuge":12098,"TV":12099,"Ġparking":12100,"Ġgained":12101,"}})":12102,"æĺ¯":12103,"Ġanalyze":12104,"Ġprotective":12105,"Ġfiling":12106,"hang":12107,"foo":12108,"dra":12109,"Ġflexible":12110,"words":12111,"Ġ\\\"":12112,"119":12113,"ÏĨ":12114,"Typ":12115,"Component":12116,"Ġupload":12117,"Ġcow":12118,"ĠAction":12119,"Ġ\"$":12120,"ĠZealand":12121,"Ġvacuum":12122,"Ġabsent":12123,"ĠSanta":12124,"Ġcenters":12125,"ĠPrime":12126,"Ġdistinguish":12127,"Ġul":12128,"Ġ104":12129,"dp":12130,"bes":12131,"Ġfoods":12132,"activity":12133,"Â¾":12134,"Ġcrimes":12135,"ĠExec":12136,"Ġasympt":12137,"Ġ1986":12138,"Ġguest":12139,"Ġwedding":12140,"ĠBoy":12141,"ĠStandard":12142,"Ġboss":12143,"ĠGa":12144,"Ġseverity":12145,"Ġcontends":12146,"Ġpackages":12147,"Ġharder":12148,"ĠLead":12149,"ĠPot":12150,"Ġfoundation":12151,"Ġsessions":12152,"hh":12153,"Ġbull":12154,"because":12155,"grav":12156,"]{}\\":12157,"ĠUV":12158,"Pass":12159,"Ġproceeding":12160,"remove":12161,"Ġsupplied":12162,"Ġqualified":12163,"Ġ{}":12164,"ĠStephen":12165,"Target":12166,"ĠCentre":12167,"Ġwitnesses":12168,"Ġlocally":12169,"103":12170,"Ġcheese":12171,"ĠGuard":12172,"Width":12173,"Ġcuts":12174,"Ġlikelihood":12175,"orable":12176,"Xiv":12177,"zona":12178,"HECK":12179,"Ġannot":12180,"Theta":12181,"Ġsequencing":12182,"super":12183,"Ġincl":12184,"ĠÃ¨":12185,"bing":12186,"ropic":12187,"Ġbunch":12188,"}}}\\":12189,"Ġtips":12190,"))/(":12191,"ĠSoviet":12192,"Ġshadow":12193,"Ġ('":12194,"Ġ102":12195,"sit":12196,"Ġschem":12197,"Ġbeside":12198,"Ġflags":12199,"ucky":12200,"Ġsearching":12201,"acet":12202,"Window":12203,"Ġbearing":12204,"Ġacceptable":12205,"Ġinfluenced":12206,"Ġforum":12207,"Ġ1985":12208,"iii":12209,"Ġprevention":12210,"fusion":12211,"Ġinterventions":12212,"Ġguarantee":12213,"utter":12214,"Ġshorter":12215,"âĻª":12216,"Ġpointer":12217,"Ġheating":12218,"ĠDun":12219,"Ġexpenses":12220,"uty":12221,"107":12222,"Ġmeetings":12223,"ĠLA":12224,"=\"../../":12225,"Ġvolunt":12226,"ĠSTAT":12227,"Ġperturb":12228,"117":12229,"Ġvital":12230,"drop":12231,"ĠSeries":12232,"Ġartery":12233,"Address":12234,"double":12235,"ĠHave":12236,"overs":12237,"Ġcompletion":12238,"REE":12239,"hop":12240,"Ġbyte":12241,"ĠCommunity":12242,"ĠThird":12243,"Ġbid":12244,"Ġdad":12245,"ĠTE":12246,"ĠKenn":12247,"req":12248,"Ġ\"\"\"":12249,"Ġreply":12250,"Ġquestionna":12251,"ĠDefendants":12252,"Ġchecks":12253,"Ġmusical":12254,"ĠNevertheless":12255,"Ġregarded":12256,"Ġdevelopers":12257,"aired":12258,"TP":12259,"Ġtargeting":12260,"amento":12261,"Ġpsychological":12262,"Ġcouncil":12263,"ĠTotal":12264,"Ġknee":12265,"àª":12266,"ĠSource":12267,"backs":12268,"Ã¤t":12269,"á¼":12270,"ĠMother":12271,"Ġflour":12272,"Ġpixel":12273,"ĠIntroduction":12274,"Ġassays":12275,"ĠPop":12276,"Ġsatell":12277,"ĠCM":12278,"otide":12279,"Ġdates":12280,"heast":12281,"ĠEric":12282,"ĠLim":12283,"ĠPay":12284,"arer":12285,"Ġinsight":12286,"redit":12287,"aser":12288,"Ġlimitation":12289,"tim":12290,"Ġstepped":12291,"ĠHor":12292,"GP":12293,"Ġink":12294,"FE":12295,"Ġdesper":12296,"vard":12297,"ĠRome":12298,"formance":12299,"Ġexciting":12300,"bp":12301,"ĠDam":12302,"keys":12303,"fish":12304,"Ġdisadvant":12305,"Ġharvest":12306,"Pan":12307,"Ġsatisfies":12308,"good":12309,"gov":12310,"buntu":12311,"Ġgeneric":12312,"Ġmood":12313,"Ġpromised":12314,"Ġgear":12315,"ĠHead":12316,"Ġranging":12317,"Ġprecision":12318,"Ġsustained":12319,"Ġexhibited":12320,"Book":12321,"ĠTer":12322,"Ġasks":12323,"Ġthrows":12324,"riter":12325,"ynamic":12326,"ĠContin":12327,"Ġtears":12328,"Ġtied":12329,"Application":12330,"Ġkidney":12331,"Ġmoon":12332,"çĶ¨":12333,"Ġangular":12334,"Ġelections":12335,"Ġviolent":12336,"Ġpenalty":12337,"Ġoccurrence":12338,"ropri":12339,"Ġconcepts":12340,"esity":12341,"Ġcarb":12342,"Ġbarely":12343,"Ùĥ":12344,"108":12345,"TTP":12346,"ĠWas":12347,"Ġaffili":12348,"Ġperceived":12349,"dc":12350,"Ġactor":12351,"oa":12352,"oni":12353,"Ġcooling":12354,"Ġoverwhel":12355,"Ġmedication":12356,"Ġresidues":12357,"Ġarmed":12358,"namespace":12359,"ĠTenn":12360,"åį":12361,"Ġsauce":12362,"Ġending":12363,"Ġmuc":12364,"Ġslic":12365,"Ġeste":12366,"ĠWhether":12367,"ICENSE":12368,"Ġwondering":12369,"Ġrecovered":12370,"negative":12371,"Ġ((-":12372,"ĠĠĠĠĠĠĠĠĠĠĠĠĠĠĠĠĠĠĠĠĠĠĠĠĠĠĠĠĠĠĠĠĠĠĠ":12373,"attered":12374,"Ġ}}":12375,"Ġprojection":12376,"Ġjudicial":12377,"condition":12378,"iotic":12379,"Ġcarcinoma":12380,"Ġ----------------------------------------------------------------":12381,"rooms":12382,"Â¤":12383,"Ġtong":12384,"Ġ117":12385,"Î¹Îº":12386,"Ġnit":12387,"Ġnations":12388,"Â«":12389,"Ġstudying":12390,"Ġdiffusion":12391,"Ġclimb":12392,"eries":12393,"Ġseasons":12394,"rait":12395,"Ġcooking":12396,">&":12397,"Ġrestriction":12398,"Ġunlike":12399,"Â¿":12400,"Dav":12401,"blem":12402,"Ġflowers":12403,"angular":12404,"Ġpersu":12405,"hl":12406,"ouston":12407,"Âģ":12408,"Ġbub":12409,"High":12410,"Ġtow":12411,"ĠWithout":12412,"Ġtension":12413,"arios":12414,"Ġcontest":12415,"ĠKit":12416,"Ġboolean":12417,"Ġalignment":12418,"Ġrandomly":12419,"Ġfeeding":12420,"Ġarc":12421,"abe":12422,"Ġcoding":12423,"session":12424,"icking":12425,"location":12426,"ĠMatt":12427,"1997":12428,"Ġearned":12429,"mac":12430,"Ġbuck":12431,"140":12432,"Ġspiritual":12433,"rett":12434,"AMP":12435,"Ġrecruit":12436,"Ġunexpected":12437,"Ġprofessionals":12438,"ĠCat":12439,"Met":12440,"apor":12441,"Ð¾Ð±":12442,"Ġnobody":12443,"Ġ105":12444,"ĠRose":12445,"ãĥ¼ãĥ":12446,"engers":12447,"Ġreadily":12448,"aya":12449,"Ġscream":12450,"Ġaddresses":12451,"Ġfacilitate":12452,"Sw":12453,"UP":12454,"asted":12455,"Ø©":12456,"Ġ1984":12457,"}}$,":12458,"Ġnutrition":12459,"å¹":12460,"estyle":12461,"ĠLett":12462,"Ġdeliber":12463,"gered":12464,"command":12465,"Ġjun":12466,"ĠAud":12467,"Ġinvited":12468,"Ġpanels":12469,"Ġ116":12470,"bury":12471,"Ġattributes":12472,"Ġphases":12473,"ĠFI":12474,"mask":12475,"Ġcleaning":12476,"Activity":12477,"Ġmixing":12478,"Total":12479,"Ġaccessible":12480,"à´":12481,"ĠRights":12482,"Ġassociations":12483,"Long":12484,"1996":12485,"Ġidentifying":12486,"Ġtherap":12487,"lined":12488,"Ġdrew":12489,"irectory":12490,"ĠPatients":12491,"Ġparagraph":12492,"Ġepidem":12493,"four":12494,"Ġinsufficient":12495,"ĠMinn":12496,"\\}":12497,"Ð¸Ð¼":12498,"Put":12499,"yy":12500,"Ġdeposition":12501,"Ġweird":12502,"tan":12503,"Ġoh":12504,"ÎĶ":12505,"irtual":12506,"bold":12507,"Ġeffectiveness":12508,"Ġpounds":12509,"tri":12510,"etts":12511,"Ġsymp":12512,"Mean":12513,"Ġputs":12514,"craft":12515,"Ġpray":12516,"Range":12517,"![](":12518,"ĠAsh":12519,"012":12520,"}}(\\":12521,"Ġdecent":12522,"Ġgrate":12523,"ĠUnfortunately":12524,"Ġappeals":12525,"gun":12526,"ĠLind":12527,"**.":12528,"Ġvag":12529,"Ġpromising":12530,"Ġmacroph":12531,"associated":12532,"Op":12533,"Ġdestruction":12534,"illary":12535,"Ġvaccine":12536,"Ġdip":12537,"env":12538,"Ġresidual":12539,"uations":12540,"install":12541,"Ġtracking":12542,"ifting":12543,"Ġenorm":12544,"Tag":12545,"VC":12546,"Ġresonance":12547,"your":12548,"ĠOpt":12549,"ĠCy":12550,"Ġultimate":12551,"represent":12552,"ÂĹ":12553,"Ġtent":12554,"copy":12555,"Di":12556,"Ð°ÑĢ":12557,"Exec":12558,"Ġbreakfast":12559,"Ð¾ÑĤ":12560,"also":12561,"Ġdisability":12562,"ĠUnivers":12563,"success":12564,".:":12565,"ĠGames":12566,"sett":12567,"Ġmolecule":12568,"ĠDue":12569,"ĠDoug":12570,"Ġtransmitted":12571,"render":12572,"Ġpill":12573,"ĠJun":12574,"\\,\\":12575,"ĠFBI":12576,"late":12577,"Ġpi":12578,"ulative":12579,"022":12580,"cam":12581,"alo":12582,"Ġblot":12583,"enz":12584,"ÑģÑı":12585,"tree":12586,"Ã¯":12587,"Ġ::":12588,"Ġrod":12589,"Ġincons":12590,"ĊĠĊĠ":12591,"away":12592,"Ġdeck":12593,"atile":12594,"ĠQuant":12595,"ergic":12596,"Local":12597,"Ġrelating":12598,"ĠPlaintiffs":12599,"ĠStudy":12600,"0002":12601,"ĠKar":12602,"ĠOp":12603,"Ġauf":12604,"Ġstomach":12605,"ghan":12606,"Ġguitar":12607,"zzle":12608,"Ġpreliminary":12609,"Section":12610,"åº":12611,"amic":12612,"fall":12613,"Ġphrase":12614,"ĠCu":12615,"Header":12616,"Ġdenominator":12617,"Ġenvironments":12618,"Ġbird":12619,"ĠIndust":12620,"Ġlocked":12621,"Ġmatrices":12622,"comfort":12623,"Ġ(@":12624,"achine":12625,"Ġik":12626,"iones":12627,"Ġ<-":12628,"gex":12629,"ders":12630,"Ġfolks":12631,"Ġpromoter":12632,"ariju":12633,"ĠTal":12634,"Ġposterior":12635,"archy":12636,"ĠProcess":12637,"Ġconsecutive":12638,"ERROR":12639,"cycl":12640,"Ġ118":12641,"Ġneu":12642,"Ġrecommendations":12643,"Ġdisplays":12644,"Ġconstitute":12645,"AE":12646,"Ġaqu":12647,"Ġnormalized":12648,"ĠConference":12649,"Ġ109":12650,"arijuana":12651,"Ġverify":12652,"orting":12653,"Ġexpectations":12654,"Ġdrain":12655,"ĠDer":12656,"Ġremembered":12657,"Ġ180":12658,"Ġpropose":12659,"Ġhint":12660,"ITED":12661,"ĠWeek":12662,"ĠHay":12663,"Ġarrive":12664,"Ġâī¥":12665,"Ġdrove":12666,"Ġchecking":12667,"aden":12668,"Ġvessels":12669,"Ġcomputing":12670,"ĠFord":12671,"Ġpresidential":12672,"ĠRepresent":12673,"æĿ":12674,"GH":12675,"Ġplea":12676,"opher":12677,"Ġintense":12678,"Ġreputation":12679,"Ġshoes":12680,"ĠVen":12681,"Ġfi":12682,"Ġwaters":12683,"Ġquot":12684,"Ġpredomin":12685,"ĠLady":12686,"Ġscar":12687,"fact":12688,"Ġembedded":12689,"Ġinstallation":12690,"ĠUI":12691,"ĠElizabeth":12692,"VE":12693,"Ġingredients":12694,"History":12695,"Ġpulmonary":12696,"Ġconcert":12697,"Ġanger":12698,"Ġshopping":12699,"Ġlifetime":12700,"ĠĠĠĠĠĠĠĠĠĠĠĠĠĠĠĠĠĠĠĠĠĠĠĠĠĠĠĠĠĠĠĠĠĠ":12701,"mente":12702,"ĠAnton":12703,"ici":12704,"wedge":12705,"Ġ106":12706,"Ġconvey":12707,"made":12708,"Ġleuk":12709,"Ġcontracts":12710,"Ã¨s":12711,"Ġassignment":12712,"LY":12713,"Ġcontacts":12714,"Ġtang":12715,"Ġsolely":12716,"ĠOxford":12717,"Ġintellectual":12718,"'_":12719,"disc":12720,";;":12721,"Ġconsistently":12722,"Ġdelight":12723,"Ġreporter":12724,"aga":12725,"ĠSyria":12726,"izable":12727,"115":12728,"1995":12729,"ĠMP":12730,"Ġplasm":12731,"ĠProfessor":12732,"ivariate":12733,"Ġmerch":12734,"raine":12735,"Ġcod":12736,"Ġimplications":12737,"_{-":12738,"Ġinfect":12739,"ytes":12740,"ĠOfficer":12741,"Ġunclear":12742,"etary":12743,"ĠColumbia":12744,"elfare":12745,"Ġdifficulties":12746,"tbl":12747,"setminus":12748,"ĠRen":12749,"ITE":12750,"Num":12751,"Ġenthus":12752,"ç»":12753,"would":12754,"ĠChildren":12755,"Ġought":12756,"Ġgotten":12757,"ĠLatin":12758,"ĠMicro":12759,"Ġxe":12760,"odynam":12761,"Hi":12762,"+^":12763,"ĠPolit":12764,"Ġtreating":12765,"Ġdoses":12766,"irth":12767,"NG":12768,"SIZE":12769,"ĠFair":12770,"Ġliberal":12771,"Ġsque":12772,"ETH":12773,"ĠCond":12774,"oning":12775,"ĠRound":12776,"semble":12777,"tmp":12778,"bec":12779,"Inte":12780,"Ġboxes":12781,"imm":12782,"Ġterritory":12783,"Ġcollective":12784,"pred":12785,"agent":12786,"obic":12787,"flags":12788,"Ġdoctrine":12789,"analysis":12790,"ĠDat":12791,"Ġinherent":12792,"agic":12793,"were":12794,"Ġswitching":12795,"Ġknife":12796,"ĠMit":12797,"Ġillustrated":12798,"Ġorbit":12799,"Ġretriev":12800,"Ġduties":12801,"Util":12802,"ĠCost":12803,"Ġlayout":12804,"Ġenzymes":12805,"ĠKent":12806,"overty":12807,"ĠBru":12808,"å¼":12809,"email":12810,"plex":12811,"Ġinterpreted":12812,"abbit":12813,"Ġtalent":12814,"clusively":12815,"ĠHug":12816,"Ġfeatured":12817,"Ġvalidation":12818,"Ġpregnant":12819,"Ms":12820,"Ġcomputers":12821,"ĠEdward":12822,"Ġtoxic":12823,"ĊĠĠĠĠĠĠĠĠĠĠĠĠĠĠĠĠĠĠĠĠĠ":12824,"Equal":12825,"ĠMah":12826,"ĠLy":12827,"Ġhits":12828,"Ġshield":12829,"Ġliterally":12830,"Ġenthusi":12831,"Ġdefects":12832,"Ġfucking":12833,"âĢħ":12834,"empl":12835,"ĠLE":12836,"Ġcaps":12837,"berry":12838,"Ġignored":12839,"Ġ128":12840,"ĠPrince":12841,"acher":12842,"Ġutilized":12843,"regular":12844,"bc":12845,"Ġvaried":12846,"ĠĠĠĠĠĠĠĠĠĠĠĠĠĠĠĠĠĠĠĠĠĠĠĠĠĠĠĠĠĠĠĠĠ":12847,"norm":12848,"Ġownership":12849,"109":12850,"Ġdenotes":12851,"acco":12852,"vir":12853,"hom":12854,"Sche":12855,"Ġchamp":12856,"×ķ×":12857,"Ġheaded":12858,"Ġdeeper":12859,"ocols":12860,"arts":12861,"Take":12862,"Ġly":12863,"cases":12864,"ĠFoot":12865,"Ġfilling":12866,"Ġroy":12867,"Ġescap":12868,"Bit":12869,"Ġcomplexes":12870,"Ġconnecting":12871,"ĠCPU":12872,"ĠRA":12873,"ieve":12874,"Ġattributed":12875,"Ġphysician":12876,"area":12877,"ĠÐ½Ðµ":12878,"Ġpipe":12879,"âĢĭ":12880,"Ġmuse":12881,"ESM":12882,"ĠHolly":12883,"^{-\\":12884,"hspace":12885,"Ġinterviews":12886,"Ġrepeatedly":12887,"~*":12888,"Ġ600":12889,"oro":12890,"Ġarise":12891,"igate":12892,"ĠBC":12893,"groups":12894,"Expand":12895,"desc":12896,"ĠPath":12897,"FLAG":12898,"olen":12899,"Ġequilibrium":12900,"achus":12901,"Ġemotion":12902,"Reference":12903,"Ġreflection":12904,"Ġjail":12905,"alities":12906,"Ġdysfunction":12907,"Ġmu":12908,"ĠBerlin":12909,"Ġbeneficial":12910,"Ġresidence":12911,"cht":12912,"inator":12913,"Ġwing":12914,"ĠFunction":12915,"Ġlaughed":12916,"Process":12917,"Ġpm":12918,"Ġedit":12919,"Ġseeds":12920,"Spe":12921,"Ġneighb":12922,"Ġguidance":12923,"Ġgravity":12924,"Ġocean":12925,"params":12926,"nex":12927,"Ġdescribing":12928,"Ã¬":12929,"ĠWin":12930,"ĠSav":12931,"Ġintens":12932,"ogram":12933,"Ġalongside":12934,"isl":12935,"ĠSR":12936,"Ġchat":12937,"Ġisolation":12938,"Ġvisits":12939,"Ġvisitors":12940,"ounce":12941,"SV":12942,"}$$\\":12943,"Ġinvestors":12944,"inners":12945,"Ġburst":12946,"Ġmini":12947,"ettings":12948,"ĠNic":12949,"Ġoccurring":12950,"Ġnamespace":12951,"Ġworker":12952,"Ġvariant":12953,"Ġadapted":12954,"Ġreveals":12955,"Ġguests":12956,"Ġmemories":12957,"Ġregistration":12958,"ĠBudd":12959,"ĠMas":12960,"ĠBra":12961,"fc":12962,"Run":12963,"Ġcub":12964,"ĠWord":12965,"ĠMap":12966,"Ġruled":12967,"Ġoverride":12968,"106":12969,"ĠNight":12970,"lower":12971,"Ġintegrity":12972,"holders":12973,"Ġraising":12974,"]-":12975,"Will":12976,"ĠFif":12977,"Ġub":12978,"Ġscholars":12979,"language":12980,"Ġfert":12981,"âī":12982,"cache":12983,"plicity":12984,"jar":12985,"ISA":12986,"Ġtopics":12987,"Ġpneum":12988,"rogen":12989,"ĠCC":12990,"Ġconjug":12991,"Ġattractive":12992,"SELECT":12993,"Ġ++":12994,"owed":12995,"Ġbranches":12996,"Ġcerem":12997,"olis":12998,"Ġgovernments":12999,"Ġexpressing":13000,"IGN":13001,"erred":13002,"Ġspecificity":13003,"methyl":13004,"Ġcorrelations":13005,"Ġvotes":13006,"Ġframes":13007,"LP":13008,";\">":13009,"mentioned":13010,"olo":13011,"Ġnicht":13012,"forms":13013,"Ġlandscape":13014,"final":13015,"binding":13016,"Level":13017,"scribe":13018,"Rad":13019,"ĠmÃ¡s":13020,"-*":13021,"Ġarrival":13022,"ĠNaz":13023,"Ãİ":13024,"Ġpreferably":13025,"held":13026,"pow":13027,"Main":13028,"Ġmock":13029,"Ġentrance":13030,"ĠÃĲ":13031,"1994":13032,"Ġcrash":13033,"ĠPrior":13034,"Ġgathered":13035,"missible":13036,"ĠLear":13037,"ĠThom":13038,"rb":13039,"Ġlys":13040,"Ð¾Ñģ":13041,"Ġthrown":13042,"RES":13043,"agg":13044,"endor":13045,"Ġinches":13046,"thur":13047,"Ġfeas":13048,"ĠAnderson":13049,"Ġlikes":13050,"Ġlum":13051,"ĠLewis":13052,"burgh":13053,"Ġmonthly":13054,"edge":13055,"====================":13056,"Ġargs":13057,"watch":13058,"_{(":13059,"Ġ103":13060,"ĠAz":13061,"Ġdimin":13062,"Ġni":13063,"Ġcann":13064,"Ġdefines":13065,"lab":13066,"Å£":13067,"help":13068,"Ġperception":13069,"Ġdeclined":13070,"arded":13071,"total":13072,"ĠĠĠĠĠĠĠĠĠĠĠĠĠĠĠĠĠĠĠĠĠĠĠĠĠĠĠĠĠĠĠĠĠĠĠĠĠĠĠĠĠ":13073,"ĨĴ":13074,"utt":13075,"aton":13076,"Ġhopes":13077,"Ð¸Ðµ":13078,"Ġolig":13079,"Ġemerged":13080,"verted":13081,"Ġconvicted":13082,"Ġconstitu":13083,"Change":13084,"urations":13085,"echo":13086,"ĠJean":13087,"ĠÃ®n":13088,"Ġvalidity":13089,"ĠLI":13090,"\\!\\!":13091,"prison":13092,"ĠĠĠĠĠĠĠĠĠĠĠĠĠĠĠĠĠĠĠĠĠĠĠĠĠĠĠĠĠĠĠĠĠĠĠĠ":13093,"Ġett":13094,"bus":13095,"Ġanybody":13096,"Ġvariability":13097,"Ġmold":13098,"cells":13099,"lessly":13100,"Ġawesome":13101,"ĠNick":13102,"ĠBrad":13103,"ĠRegister":13104,"hn":13105,"printf":13106,"eterm":13107,"versely":13108,"immun":13109,"Ġatom":13110,"ĠĠĠĠĠĠĠĠĠĠĠĠĠĠĠĠĠĠĠĠĠĠĠĠĠĠĠĠĠĠĠĠĠĠĠĠĠ":13111,"ĠRyan":13112,"ĠPakistan":13113,"effective":13114,"Jo":13115,"conv":13116,"ĠCreate":13117,"Ġtransportation":13118,"stop":13119,"Ġtransactions":13120,"Ġsymmetric":13121,"ĠEurop":13122,"debug":13123,"ĠProduct":13124,"ä¼":13125,"Ãµes":13126,"ãģķ":13127,"Ġlabeled":13128,"Ġinfant":13129,"Ġimplant":13130,"Ġrestrictions":13131,"ĠMill":13132,"ĠAccess":13133,"Ġconvin":13134,"articles":13135,"Ġpacket":13136,"Fs":13137,"ĠBeach":13138,"Null":13139,"necessary":13140,";</":13141,"013":13142,"ĠAG":13143,"^)":13144,"cler":13145,"Ġtensor":13146,"framework":13147,"phia":13148,"othelial":13149,"BV":13150,"ĠCoast":13151,"Ġfibers":13152,"Ġloose":13153,"bur":13154,"Ġmodul":13155,"eed":13156,"Valid":13157,"ĠInf":13158,"send":13159,"ĠConsequently":13160,"Ġimmigration":13161,"Ġexisted":13162,"Ġbankruptcy":13163,"enza":13164,"amos":13165,"ĠSometimes":13166,"ĠArizona":13167,"ĠNAS":13168,"ĠParliament":13169,"inned":13170,"ĠEle":13171,"people":13172,"Ġfunctionality":13173,"Ġspont":13174,"Ġinev":13175,"Ġchains":13176,"Ġborrow":13177,"èĢ":13178,"Ġ\\#":13179,"pur":13180,"andy":13181,"Ġsuicide":13182,"Ġtransmit":13183,"Const":13184,"ĠAdam":13185,"Ġinsect":13186,"Ġbrothers":13187,"ITION":13188,"Ġsupplies":13189,"ĠÐ³":13190,"ĠIndex":13191,"Ġexecute":13192,"Ġburning":13193,"idine":13194,"game":13195,"ĠCro":13196,"Ġspecify":13197,"Ġgoverning":13198,"Ġdisrupt":13199,"ĠLev":13200,"phal":13201,"Ġbundle":13202,"Ġdesignated":13203,"figure":13204,"Ġbegun":13205,">.":13206,"ĠBab":13207,"116":13208,"ications":13209,"Ġsatisfaction":13210,"Ġcategor":13211,"Ġimpression":13212,"Ġchemotherapy":13213,"Ġpersonality":13214,"linux":13215,"arding":13216,"ĠPsych":13217,"DO":13218,"oln":13219,"Ġthrew":13220,"Ġdin":13221,"Ġconfident":13222,"Ġinstruments":13223,"Ġengagement":13224,"Ġmitochondrial":13225,"uble":13226,"Ġpad":13227,"Ġblocked":13228,"Ġlumin":13229,"Ġsake":13230,"gly":13231,"Ġsurveillance":13232,"Ġanterior":13233,"Ġteasp":13234,"Ġgradually":13235,"Christ":13236,"mates":13237,"Ġhospitals":13238,"Ġgenuine":13239,"ĠBL":13240,"him":13241,"Ġfibr":13242,"bind":13243,"ĠâĪ":13244,"ĠKorean":13245,"Var":13246,"Ġcoordinate":13247,"Ġfactory":13248,"Ġancest":13249,"ureau":13250,"Ġtact":13251,"adelphia":13252,"Ġhealing":13253,"alg":13254,"TX":13255,"æĢ":13256,"application":13257,"Ġassumptions":13258,"acht":13259,"âĦ":13260,"season":13261,"Task":13262,"Ġtwelve":13263,"DIR":13264,"ricular":13265,"ĠJordan":13266,"023":13267,"MOESM":13268,"Ġvig":13269,"}\"":13270,"clock":13271,"ĠWhe":13272,"Ġadoles":13273,"Ġenables":13274,"ĠMethods":13275,"Ġ108":13276,"Ġopens":13277,"Ġretain":13278,"ĠIslamic":13279,"Ġsuspected":13280,"Ġhash":13281,"Ġquadr":13282,"Tool":13283,"čĊĠĠĠĠĠĠĠĠĠĠĠĠĠĠĠ":13284,"Ġexpon":13285,"Ġsegments":13286,"ĠBul":13287,"Ġhip":13288,"Ġions":13289,"Ġdeny":13290,"Åį":13291,"Ġpadding":13292,"ĠConserv":13293,"Ġmyth":13294,"sters":13295,"Ġyours":13296,"container":13297,"ĠĊĠĠĠĠĠĠĠ":13298,"Ġlabels":13299,"ĠTerm":13300,"ĠWild":13301,"osomal":13302,"Ġepisodes":13303,"iaz":13304,"nl":13305,"Ġwaited":13306,";&":13307,"Ġtraject":13308,"stage":13309,"ku":13310,"Ġdefeat":13311,"ĠHistor":13312,"itudinal":13313,"Bas":13314,"Column":13315,"Ġphysically":13316,"Ġholiday":13317,"Ġdivor":13318,"Ġcosm":13319,"Ġsizeof":13320,"odd":13321,"lat":13322,"Make":13323,"Ġentre":13324,"Ġabdom":13325,"Ġpars":13326,"Ġencounter":13327,"Ġdeals":13328,"ĠServer":13329,"Ġnas":13330,"Ġcompatible":13331,"\"};":13332,"Ġderivatives":13333,"Ġdenial":13334,"vised":13335,"ĠColorado":13336,"ordinary":13337,"ucl":13338,"Ġtap":13339,"ancers":13340,"ĠPrem":13341,"Ġthrom":13342,"Ġartificial":13343,"clipse":13344,"oes":13345,"ÂĮ":13346,"Pres":13347,"plete":13348,".).":13349,"ilst":13350,"Ġsurely":13351,"rophy":13352,"Ġ$.":13353,"yers":13354,"Ġ\"/":13355,"Ġdiscrete":13356,"Ġdifferently":13357,"ouds":13358,"Ġml":13359,"hash":13360,"WA":13361,"Eval":13362,"Ġdozen":13363,"Ġbriefly":13364,"Ġreliability":13365,"Ġunderwent":13366,"Ġcavity":13367,"Ġmuscles":13368,"Ġglob":13369,"Ġassistant":13370,"Ġmatched":13371,"prim":13372,"ĠNature":13373,"ĠAfghan":13374,"Ãĺ":13375,"Cle":13376,"Ġbeliefs":13377,"\\_[":13378,"126":13379,"prom":13380,"Ġpushing":13381,"Ġpub":13382,"obacter":13383,"Ġthroat":13384,"Ġblame":13385,"Ġvertices":13386,"ĠIsraeli":13387,"Ġapt":13388,"114":13389,"Ġdistant":13390,"handle":13391,"Ġsuspension":13392,"apsed":13393,"ÑĬ":13394,"124":13395,"Ġcombine":13396,"Ġcontemporary":13397,"Ġinserted":13398,"isi":13399,"Ġ1981":13400,"Ġbonds":13401,"rass":13402,"Ġcrossed":13403,"Ġremarkable":13404,"Ġsystemic":13405,"Title":13406,"lan":13407,"Ġeligible":13408,"asia":13409,"itzer":13410,"Ġoffensive":13411,"Ġdont":13412,"ĠCore":13413,"ĠSciences":13414,"ĠfÃ¼r":13415,"Ġestimation":13416,"bat":13417,"cha":13418,"ĠMinistry":13419,"Search":13420,"Ġvoting":13421,"Ġphysiological":13422,"General":13423,"ĠAnth":13424,"Ġlap":13425,"aceutical":13426,"amer":13427,"ĠMAP":13428,"amo":13429,"DH":13430,"Ġbold":13431,"Ġscalar":13432,"1990":13433,"plates":13434,"diff":13435,"Ġdesert":13436,"Ġprogressive":13437,"Ġcardiovascular":13438,"Ġ).":13439,"ãģ¦ãģĦ":13440,"Product":13441,"Ġdelayed":13442,"Ġconspiracy":13443,"Ġlands":13444,"ĠCub":13445,"Å¼":13446,"boot":13447,"Ġcot":13448,"Ġscenes":13449,"Ġspoken":13450,"father":13451,"ailing":13452,"Ġprolong":13453,"sky":13454,"Connection":13455,"Ġpointing":13456,"pany":13457,"Ġva":13458,"Ġweights":13459,"achusetts":13460,"Ġovernight":13461,"ockey":13462,"Ġfought":13463,"Ġphenotype":13464,"elect":13465,"omorphic":13466,"Ġeliminate":13467,"ĠPlace":13468,"Ġbreaks":13469,"derived":13470,"tor":13471,"Ġexport":13472,"ĠĠĠĠĠĠĠĠĠĠĠĠĠĠĠĠĠĠĠĠĠĠĠĠĠĠĠĠĠĠĠĠĠĠĠĠĠĠĠ":13473,"Ġlucky":13474,"Ġconfused":13475,"ĠImages":13476,"Ġsensors":13477,"ĠRail":13478,"replace":13479,"129":13480,"Ġquantities":13481,"äºº":13482,"images":13483,"åĩ":13484,"Ġsquad":13485,"$]{}":13486,"ĠCreat":13487,"ativ":13488,"Ġlovely":13489,"ĠLinux":13490,"Ġmaximal":13491,"requency":13492,"olecular":13493,"Ġequipped":13494,"Ġpainting":13495,"Ġplatforms":13496,"éĩ":13497,"ĠAdministration":13498,"ĠCre":13499,"Enc":13500,"Ġcomplement":13501,"ĠÙħ":13502,"zes":13503,"Ġsynthetic":13504,"ĠEC":13505,"utable":13506,"elcome":13507,"Custom":13508,"oj":13509,"Ġseats":13510,"Ġvoor":13511,"yard":13512,"Ġshortly":13513,"ĠCome":13514,"domain":13515,"meta":13516,"Ġcourses":13517,"Ġubuntu":13518,"Ġprogramme":13519,":=":13520,"Ċĉĉĉĉĉĉĉĉ":13521,"three":13522,"ĠFull":13523,"âĶĢâĶĢ":13524,"Ġregulated":13525,"ĠCF":13526,"ĠNothing":13527,"parison":13528,"ĠNorm":13529,"Ġfitting":13530,"ĠToronto":13531,"ĠBible":13532,"idi":13533,"ĠAdv":13534,"ressing":13535,"Ġpreventing":13536,"ashes":13537,"ioxid":13538,"ĠMom":13539,"Ġmanually":13540,"ulent":13541,">\\":13542,"ĠPrinc":13543,"Ġobtaining":13544,"Ġfallen":13545,"Ġdop":13546,"1993":13547,"court":13548,"Ġcollapse":13549,"priv":13550,"Ġcombinations":13551,"Ġtrends":13552,"Ġcustody":13553,"ĠALL":13554,"Ġpoliticians":13555,"ĠPri":13556,"Ġcholesterol":13557,"iah":13558,"Que":13559,"Ġdetector":13560,"Ġ1982":13561,"bian":13562,"looking":13563,"^{+":13564,"Ġaffecting":13565,"plane":13566,"Del":13567,"Module":13568,"Ġticket":13569,"Ġdamaged":13570,"ĠWE":13571,"Ġshoulders":13572,"ĠSS":13573,"Ġbehaviors":13574,"enders":13575,"claimed":13576,"ĠMarg":13577,"chers":13578,"ĠÃ¥":13579,"ĠĠĠĠĠĠĠĠĠĠĠĠĠĠĠĠĠĠĠĠĠĠĠĠĠĠĠĠĠĠĠĠĠĠĠĠĠĠĠĠ":13580,"Ġincorrect":13581,"Ġleak":13582,"wrap":13583,"Ġtar":13584,"READ":13585,"Ġviolated":13586,"ente":13587,"Ġheading":13588,"ĠKong":13589,"idav":13590,"ĠKat":13591,"ĠHan":13592,"Ġcaptain":13593,"Ġpeaks":13594,"Ġdating":13595,"Ġoccupied":13596,"Ġhill":13597,"verex":13598,"Ġvibr":13599,"ĠCrim":13600,"Ġdisabled":13601,"Ġclause":13602,"Ġbron":13603,"oven":13604,"rocy":13605,"news":13606,"ä¸Ń":13607,"åľ¨":13608,"~)":13609,"Ġrecipe":13610,"Ġaccurately":13611,"Ca":13612,"urer":13613,"ede":13614,"Chapter":13615,"God":13616,"ĠLyn":13617,"Ġ135":13618,"Ø¨":13619,"Ġexcessive":13620,"abling":13621,"Ġsmell":13622,"ĠRoss":13623,"ĠPBS":13624,"Ġglut":13625,"Ġears":13626,"ĠGrant":13627,"Ġdiscount":13628,"Ġstriking":13629,"mma":13630,"Ġextending":13631,"zone":13632,"DER":13633,"Url":13634,"Ġcultured":13635,"itage":13636,"ãĤĵ":13637,"Ġparticipated":13638,"Dem":13639,"Ġscaling":13640,"pread":13641,"Ġpublicly":13642,"phant":13643,"onomy":13644,"Ġnos":13645,"ĠMars":13646,"Ġgalaxy":13647,"Ġpredictions":13648,"ĠAlexander":13649,"NI":13650,"Ġodds":13651,"Ġfocusing":13652,"Ġphosphorylation":13653,"THER":13654,"Ġtransformed":13655,"ĠSpecifically":13656,"ennis":13657,"Ġtwe":13658,"Ġpressed":13659,"ĠTax":13660,".*]{}":13661,"ĠOP":13662,"ĠKnow":13663,"ĠTyp":13664,"Ġbrilli":13665,"$^{-":13666,"ĠNavy":13667,"jet":13668,"Ġstellar":13669,"merce":13670,"Ġspark":13671,"Ġboundaries":13672,"ĠSche":13673,"odge":13674,"ĠAgency":13675,"walk":13676,"Ġcul":13677,"ĠHarris":13678,"Ġdar":13679,"ãĤ¤":13680,"ptic":13681,"Ġgraft":13682,"enna":13683,"window":13684,"Ġselective":13685,"Ġwinner":13686,"Wait":13687,"FILE":13688,"Ġlegend":13689,"cker":13690,"Ġmyst":13691,"Dir":13692,"channel":13693,"Ġbike":13694,"Ġrendered":13695,"Ġaims":13696,"Ġthreatened":13697,"ceive":13698,"Ġestablishment":13699,"Ġdreams":13700,"oga":13701,"ĠÂłÂłĠÂłÂł":13702,"scription":13703,"uclear":13704,"eur":13705,"Ġsupern":13706,"ĠÐµ":13707,"ĠSW":13708,"Ġgross":13709,"track":13710,"lings":13711,"Ġstrictly":13712,"ĠMedicine":13713,"Ġrating":13714,"Ġmarijuana":13715,"Ġ132":13716,"Ġfifty":13717,"Serv":13718,"1111":13719,"Ġdeveloper":13720,"Ġgrain":13721,"!)":13722,"Ġdump":13723,"Ġstretch":13724,"Ġinvariant":13725,"ĠTen":13726,"ĠGre":13727,"Ġpartly":13728,"Ġsoph":13729,"Ġprocessor":13730,"Ġscanning":13731,"aque":13732,"Ġorange":13733,"Offset":13734,"Ġinverse":13735,"Ġgre":13736,"Ġcorporation":13737,"ĠSem":13738,"Ġpotent":13739,"Ġfate":13740,"135":13741,"å¯":13742,"Core":13743,"Ġflavor":13744,"Ġlibraries":13745,"ãĢĮ":13746,"icker":13747,"Ġsurrounded":13748,"Ġspecimens":13749,"ãĢį":13750,"SW":13751,"AVE":13752,"Ġshaft":13753,"Ġattempting":13754,"Ġoptimization":13755,"ĠVill":13756,"appropri":13757,"Ġlogical":13758,"Ġtolerance":13759,"Ġconvinced":13760,"token":13761,"çĽ":13762,"Ġcircular":13763,"PORT":13764,"Ġretro":13765,"Ġshots":13766,"ĠĠĊ":13767,"Ġbreach":13768,"ĠRather":13769,"Ġweekly":13770,"ĠDifferent":13771,"aid":13772,"Ġconfusion":13773,"idget":13774,"colon":13775,"phosph":13776,"Ġbelt":13777,"OVID":13778,"Ġapproached":13779,"Ġcomputation":13780,"ifiers":13781,"closed":13782,"Ġpanc":13783,"ĠPetition":13784,"Ġnucleus":13785,"Mus":13786,"Ġcapabilities":13787,"Ġcampus":13788,"Ġcommunicate":13789,"OST":13790,"Ø¹":13791,"Ġranges":13792,"Ġtraits":13793,"ĠBroad":13794,"Ġuptake":13795,"ĠProm":13796,"Ġamended":13797,"Ġcompression":13798,"EP":13799,"ounding":13800,"ĠÎĶ":13801,"Har":13802,"Ġatomic":13803,"Ġreflects":13804,"oche":13805,"edu":13806,"ĠEnvironment":13807,"ĠÏĦÎ·":13808,"[**":13809,"Ġdistinction":13810,"Tube":13811,"ĠPython":13812,"Mac":13813,"hw":13814,"Ġtech":13815,"Ġms":13816,"ococ":13817,"MAP":13818,"support":13819,"Ġdent":13820,"aware":13821,"shaped":13822,"ritis":13823,"GFR":13824,"Ġstiff":13825,"Ġpreparing":13826,"ĠLink":13827,"Ġ_,":13828,"Ġfrozen":13829,"abama":13830,"Ġobesity":13831,"Av":13832,"Ġpepper":13833,"Inv":13834,"TF":13835,"hd":13836,"Pos":13837,"Ġfits":13838,"Ġstake":13839,"Ġ1979":13840,"ensing":13841,"Ġdebug":13842,"ABILITY":13843,"Ġminds":13844,"Ġaggressive":13845,"floor":13846,"Ġdistances":13847,"ĠÎ³":13848,"168":13849,"angel":13850,"acles":13851,"ÂĦ":13852,"ĠSaf":13853,"ĠMoore":13854,"Ġfavorable":13855,"Bs":13856,"IAL":13857,"Ġpap":13858,"hbar":13859,"Ġdarkness":13860,"children":13861,"Ġpleased":13862,"itus":13863,"Ġinline":13864,"Ġdispos":13865,"Ġsaving":13866,"ĠSystems":13867,"Ġpace":13868,"strap":13869,"Ġletting":13870,"ĠĠĠĠĠĠĠĠĠĠĠĠĠĠĠĠĠĠĠĠĠĠĠĠĠĠĠĠĠĠĠĠĠĠĠĠĠĠ":13871,"ĠCP":13872,"mother":13873,"Ġwondered":13874,"ĠCancer":13875,"Ġantagon":13876,"_+":13877,"docs":13878,"Height":13879,"Ġrh":13880,"Position":13881,"mate":13882,"Ġchap":13883,"pection":13884,"Ġchoosing":13885,"KEY":13886,"Ġdying":13887,"elli":13888,"Ġreversed":13889,"Ġmim":13890,"Ġprospective":13891,"Ġutter":13892,"1992":13893,"Ġcommands":13894,"integr":13895,"Ġtie":13896,"sime":13897,"Ġ134":13898,"inflammatory":13899,"wealth":13900,"ango":13901,"Edit":13902,"Ġspan":13903,"ppers":13904,"ificant":13905,"Ġhack":13906,"Ġaffairs":13907,"Ġpending":13908,"Ġdisclosure":13909,"*=":13910,"Ïİ":13911,"ounter":13912,"Ġmile":13913,"ĠGreg":13914,"via":13915,"Ġ1950":13916,"Ġequality":13917,"Ġaccompany":13918,"Order":13919,"ĠJSON":13920,"Ġepithelial":13921,"Ah":13922,"011":13923,"Ġheaven":13924,"ĠTitle":13925,"hole":13926,"Ġrepos":13927,"0005":13928,"lyn":13929,"uple":13930,"idespread":13931,"pair":13932,"RO":13933,"ĠHoly":13934,"Ġhoped":13935,"Ġ\"#":13936,"Ġroads":13937,"ĠTele":13938,")\\,":13939,"orneys":13940,"Ġimpressive":13941,"ĠScotland":13942,"Ġinjected":13943,"ĠNFL":13944,"Ġdefining":13945,"Ġenemies":13946,"Ġoccasionally":13947,"Ġanth":13948,"ĠRadio":13949,"Ġairport":13950,"Ġnous":13951,"ximate":13952,"Ġtransparent":13953,"join":13954,"romagnetic":13955,"ĠEmpire":13956,"Ġexempt":13957,"simeq":13958,"human":13959,"Ġbom":13960,"×Ļ×":13961,"Ġattacked":13962,"Ġalarm":13963,"Ġabandoned":13964,"Opt":13965,"Ġstained":13966,"Ġconsensus":13967,"Ġtrim":13968,"ĠiPhone":13969,"ikes":13970,"ãģł":13971,"Ġempir":13972,"Ġvisiting":13973,"Ġ![":13974,"Ġspots":13975,"Ġelectricity":13976,"ouri":13977,"security":13978,"orient":13979,"comment":13980,"Ġpist":13981,"gged":13982,"Ġ})":13983,"ĠDutch":13984,"))/":13985,"Ġelderly":13986,"Ġproposition":13987,"Ġeleg":13988,"Ġsuggestions":13989,"ĠDaily":13990,"ĠML":13991,"custom":13992,"'}":13993,"Step":13994,"Ġip":13995,"sun":13996,"ĠCho":13997,"Ġadjustment":13998,"Ġacted":13999,"Ġcancel":14000,"Ġpreserve":14001,"Ġupset":14002,"reference":14003,"Ġinvestigations":14004,"KS":14005,"Ġmol":14006,"209":14007,"ãģĤ":14008,"Ġindication":14009,"ĠArk":14010,"ancies":14011,"interest":14012,"=\"@":14013,"ãģı":14014,"Sing":14015,"Ġtongue":14016,"closure":14017,"Ġcenturies":14018,"Ġemotions":14019,"Ġ-------":14020,"Ġcomparisons":14021,"}}_{\\":14022,"ĠHong":14023,"ĠHas":14024,"ĠBor":14025,"240":14026,"ĠEuro":14027,"Ġ+\\":14028,"Ġcortex":14029,"elson":14030,"ancial":14031,"Ġ107":14032,"Ġdir":14033,"Ġintracellular":14034,"Ġcoating":14035,"ĠGro":14036,"Four":14037,"ĠDor":14038,"Ġmerg":14039,"Ġsolved":14040,"Ġvulnerable":14041,"Conf":14042,"Ġpropri":14043,"tration":14044,"Ġauthorized":14045,"Ġhanded":14046,"Ġsecured":14047,"icked":14048,"Ġprobable":14049,"Ã©m":14050,"Ġmodeling":14051,"atom":14052,"ĠCOP":14053,"quer":14054,"Ġpolymorph":14055,"esota":14056,"iy":14057,"Jan":14058,"wait":14059,"ÙĤ":14060,"connected":14061,"Ã©r":14062,"oker":14063,"wd":14064,"Despite":14065,"irts":14066,"etc":14067,"ĠMassachusetts":14068,"orer":14069,"Ġgolden":14070,"Ġdb":14071,"Unit":14072,"loop":14073,"Ġya":14074,"turn":14075,"Ġtout":14076,"Ġprosecution":14077,"Ġmicroscopy":14078,"AME":14079,"Ġ&=&":14080,"icture":14081,"Ġscroll":14082,"Entry":14083,"Ġdense":14084,"Additional":14085,"Ġsolo":14086,"ĠHart":14087,"Names":14088,"stud":14089,"rated":14090,"Ġlux":14091,"their":14092,"plot":14093,"Ã¹":14094,"Ġspray":14095,"Ġbedroom":14096,"Ġconsciousness":14097,"ĠNF":14098,",\\,":14099,"Sur":14100,"far":14101,"terminal":14102,"quarters":14103,"ï¼ī":14104,"syn":14105,"ĠArticle":14106,"Ġappreciated":14107,"Ġdiscloses":14108,"cmd":14109,"Ġlegislative":14110,"Ġjson":14111,"Ġ133":14112,"energy":14113,"Ġsuspended":14114,"ĠAdditional":14115,"Ġvolumes":14116,"ocker":14117,"Ġenergies":14118,"Ġliv":14119,"Ġnons":14120,"Ġaccomplished":14121,"unes":14122,"Ġbelongs":14123,"Ġfatty":14124,"Ġsatisfying":14125,"Ġcorn":14126,"è®":14127,"instein":14128,"Thus":14129,"Da":14130,"Ġshirt":14131,"ilipp":14132,"TL":14133,"ĠHad":14134,"Ġdrives":14135,"Ġdramatic":14136,"ĠSyn":14137,"ĠPrim":14138,"ĠmL":14139,"Ġactors":14140,"opsy":14141,"Ġconservation":14142,"Ġoffices":14143,"Discussion":14144,"usp":14145,"ĠAV":14146,"Ġemerging":14147,"Ġarrow":14148,"dated":14149,"lesh":14150,"etheless":14151,"Debug":14152,"Ġlimiting":14153,"Ġgenerator":14154,">::":14155,"Ġdeput":14156,"Ġresin":14157,"GFP":14158,"cpp":14159,"ĠSoc":14160,"Ġallegedly":14161,"Ġnitrogen":14162,"Ġalien":14163,"Ġstere":14164,"Ġjoining":14165,"Ġmath":14166,"ĠBlood":14167,"Ġattachment":14168,"Ð½Ð¸":14169,"Ġmarch":14170,"Ġrif":14171,"Ġcircuits":14172,"ogs":14173,"Ġgovernor":14174,"Ġtries":14175,"Dist":14176,"ĠWatch":14177,"ĠGree":14178,"ĠAk":14179,"ĠDark":14180,"ĠOs":14181,"ĠAssembly":14182,"Ġsilicon":14183,"Ġdressed":14184,"Ġcried":14185,"ĠDom":14186,"Ġpolynomial":14187,"Ġreaches":14188,"Tw":14189,"Ġpoverty":14190,"<<":14191,"ASH":14192,"Ġoven":14193,"ĠShort":14194,"esty":14195,"ĠPalestin":14196,"Ġmembership":14197,"Ġwider":14198,"Cr":14199,"ãĥĪ":14200,"Ġhanging":14201,"Ġcertificate":14202,"Ġburied":14203,"/.":14204,"Ġthreats":14205,"Ġrs":14206,"1991":14207,"heres":14208,"Ġloyal":14209,"Ġ800":14210,"phase":14211,"Introduction":14212,"Ġcoronary":14213,"ĠAvenue":14214,"Ġsymbols":14215,"Ġpeer":14216,"<!--":14217,"OVA":14218,"Ġflows":14219,"ĊĠĠĠĠĠĠĠĠĠĠĠĠĠĠĠĠĠĠĠĠĠĠĠĠĠĠĠĠĠĠĠĠĠĠĠ":14220,"BUG":14221,"border":14222,"ENER":14223,"Ġcriticism":14224,"Ġexert":14225,"Ġsword":14226,"Ġsurviv":14227,"Ġclosure":14228,"144":14229,"Ġpunishment":14230,"ceptions":14231,"Ġclothing":14232,"Ġclinic":14233,"ï¼Ī":14234,"Ġrepresentations":14235,"Ġprotocols":14236,"Ġá¼":14237,"Ġcircles":14238,"Ġmoist":14239,"Ġmature":14240,"ĊĠĠĠĠĠĠĠĠĠĠĠĠĠĠĠĠĠĠĠĠ":14241,"Ġ***":14242,"Ġdried":14243,"Ġov":14244,"Ġexpense":14245,"Ġwebsites":14246,"'(":14247,"allas":14248,"Ġfragments":14249,"Ġpulling":14250,"RR":14251,"Ġprovince":14252,"ĠAltern":14253,"220":14254,"Ġvirtually":14255,"inely":14256,"Ġsimilarity":14257,"Ġhi":14258,"Ġdot":14259,"åĨ":14260,"ĠFive":14261,"Ġresistant":14262,"cia":14263,"Ġsie":14264,"category":14265,"Ġcookies":14266,"Ġmilit":14267,"Ġcrossing":14268,"Ġhtml":14269,"ĠAllen":14270,"offs":14271,"ä¸į":14272,"Ġindependence":14273,"ordon":14274,"<?":14275,"Ġconsisted":14276,"DW":14277,"Ġtends":14278,"Ġproducer":14279,"Ġmeaningful":14280,"idity":14281,"Ġswing":14282,"Ġvoted":14283,"Ġappointment":14284,"Ġlifted":14285,"Ġexclusively":14286,"ĠPhiladelphia":14287,"Ġdocumented":14288,"aÃ§Ã£o":14289,"hythm":14290,"lag":14291,"Ġaccomplish":14292,"Ġcopper":14293,"ĠHouston":14294,"ĠAgreement":14295,"uts":14296,"ĠGaussian":14297,"Ġhypertension":14298,"Ġembar":14299,"issa":14300,"Ġawait":14301,"Ġ1978":14302,"SY":14303,"Ġpric":14304,"ĠTurkey":14305,"Ġdefinitions":14306,"ĠLive":14307,"ĠLat":14308,"ĠRun":14309,"Ġpromoting":14310,"âĦ¢":14311,"Ġenhancement":14312,"Ġwarned":14313,"Living":14314,"Ġcounterpart":14315,"å½":14316,"rio":14317,"Ġdeemed":14318,"ãģį":14319,"113":14320,"disp":14321,"Menu":14322,"ĠApache":14323,"lit":14324,"Ġforty":14325,"ĠPI":14326,"scope":14327,"Ã©es":14328,"Ġincredible":14329,"ĠBang":14330,"Ġavec":14331,"ĠMathe":14332,"Ġendothelial":14333,"pmatrix":14334,"role":14335,"Ġcurious":14336,"Ġreferring":14337,"cn":14338,"hep":14339,"ĠHamiltonian":14340,"Ġsleeping":14341,"Free":14342,"uto":14343,"xa":14344,"Ġcoli":14345,"Ġbirthday":14346,"Ġgig":14347,"Ġals":14348,"122":14349,"ĊĉĠĠĠ":14350,"iu":14351,"Ġchocolate":14352,"ĠAli":14353,"oser":14354,"Ġweigh":14355,"Both":14356,"emat":14357,"member":14358,"*(-":14359,"Dat":14360,"andal":14361,"PRE":14362,"riction":14363,"Ġot":14364,"bad":14365,"Ġregulate":14366,"doi":14367,"Ġgrey":14368,"Ġdemonstrates":14369,"rage":14370,"Ġretired":14371,"Ġindivid":14372,"ANG":14373,"English":14374,"æľī":14375,"éģ":14376,"enum":14377,"133":14378,"ims":14379,"each":14380,"ĠGil":14381,"Ġdeficiency":14382,"Ġsecretary":14383,"Ġtoxicity":14384,"heart":14385,"ĠNob":14386,"ĠOt":14387,"Ġparse":14388,"ĠTok":14389,"Ġinquiry":14390,"Ġseal":14391,"ëĭ":14392,"Ġbases":14393,"screen":14394,"Ġdefensive":14395,"uler":14396,"auth":14397,"Ġinhab":14398,"Ġextrac":14399,"Ġpic":14400,"192":14401,"Ġtrop":14402,"onel":14403,"igue":14404,"lass":14405,"Ġpotato":14406,"Ġacknowledge":14407,"Draw":14408,")}(":14409,"Ġ['":14410,"Ġsper":14411,"Ġwidespread":14412,"Ġprevented":14413,"Ġerred":14414,"ariance":14415,"Interface":14416,"Ġmanaging":14417,"oxide":14418,"Ġgenomic":14419,"Show":14420,"ĠBox":14421,"bital":14422,"ĠUbuntu":14423,"Ġgrace":14424,"iac":14425,"know":14426,"Ġentities":14427,"Ġquote":14428,"Ġmothers":14429,"9999":14430,"Ġreconstruction":14431,"Ġ\"âĻª":14432,"Ġtouched":14433,"Ġrolled":14434,"ÄŁ":14435,"ÅĻ":14436,"ÏĦÎ±":14437,"hell":14438,"Ġmsg":14439,"Ġgrateful":14440,"Ġmotif":14441,"Tree":14442,"Ġrings":14443,"ĠScale":14444,"insert":14445,"Ġcollaboration":14446,"ĠHal":14447,"Ġnanop":14448,"hou":14449,"Ġindices":14450,"phys":14451,"Ġforgotten":14452,"depend":14453,"global":14454,"bibr":14455,"short":14456,"Ġfiction":14457,"izers":14458,"best":14459,"Ġmotions":14460,"Tra":14461,"Ġhistoric":14462,
[...]
